<blk>	0.0
<sos/eos>	0.0
▁,	0.0
▁.	0.0
▁!	0.0
▁?	0.0
▁:	0.0
▁;	0.0
▁，	0.0
▁。	0.0
▁！	0.0
▁？	0.0
▁：	0.0
▁；	0.0
▁、	0.0
▁的	0.0
▁我	0.0
▁是	0.0
▁你	0.0
▁了	0.0
▁一	0.0
▁不	0.0
▁这	0.0
▁个	0.0
▁有	0.0
▁就	0.0
▁们	0.0
▁在	0.0
▁他	0.0
▁人	0.0
▁么	0.0
▁来	0.0
▁说	0.0
▁那	0.0
▁要	0.0
▁好	0.0
▁啊	0.0
▁大	0.0
▁到	0.0
▁上	0.0
▁也	0.0
▁没	0.0
▁都	0.0
▁去	0.0
▁能	0.0
▁子	0.0
▁会	0.0
▁为	0.0
▁得	0.0
▁时	0.0
▁还	0.0
▁可	0.0
▁以	0.0
▁什	0.0
▁家	0.0
▁后	0.0
▁看	0.0
▁呢	0.0
▁对	0.0
▁事	0.0
▁天	0.0
▁下	0.0
▁过	0.0
▁想	0.0
▁多	0.0
▁小	0.0
▁出	0.0
▁自	0.0
▁儿	0.0
▁生	0.0
▁给	0.0
▁里	0.0
▁现	0.0
▁着	0.0
▁然	0.0
▁吧	0.0
▁样	0.0
▁道	0.0
▁吗	0.0
▁心	0.0
▁跟	0.0
▁中	0.0
▁很	0.0
▁点	0.0
▁年	0.0
▁和	0.0
▁地	0.0
▁怎	0.0
▁知	0.0
▁十	0.0
▁老	0.0
▁当	0.0
▁把	0.0
▁话	0.0
▁别	0.0
▁所	0.0
▁之	0.0
▁情	0.0
▁实	0.0
▁开	0.0
▁面	0.0
▁回	0.0
▁行	0.0
▁国	0.0
▁做	0.0
▁己	0.0
▁经	0.0
▁如	0.0
▁真	0.0
▁起	0.0
▁候	0.0
▁些	0.0
▁让	0.0
▁发	0.0
▁她	0.0
▁觉	0.0
▁但	0.0
▁成	0.0
▁定	0.0
▁意	0.0
▁二	0.0
▁长	0.0
▁最	0.0
▁方	0.0
▁三	0.0
▁前	0.0
▁因	0.0
▁用	0.0
▁呀	0.0
▁种	0.0
▁只	0.0
▁走	0.0
▁其	0.0
▁问	0.0
▁再	0.0
▁果	0.0
▁而	0.0
▁分	0.0
▁两	0.0
▁打	0.0
▁学	0.0
▁间	0.0
▁您	0.0
▁本	0.0
▁于	0.0
▁明	0.0
▁手	0.0
▁公	0.0
▁听	0.0
▁比	0.0
▁作	0.0
▁女	0.0
▁太	0.0
▁今	0.0
▁从	0.0
▁关	0.0
▁妈	0.0
▁同	0.0
▁法	0.0
▁动	0.0
▁已	0.0
▁见	0.0
▁才	0.0
▁孩	0.0
▁感	0.0
▁吃	0.0
▁常	0.0
▁次	0.0
▁它	0.0
▁进	0.0
▁先	0.0
▁找	0.0
▁身	0.0
▁全	0.0
▁理	0.0
▁又	0.0
▁力	0.0
▁正	0.0
▁主	0.0
▁应	0.0
▁高	0.0
▁被	0.0
▁钱	0.0
▁快	0.0
▁等	0.0
▁头	0.0
▁重	0.0
▁车	0.0
▁谢	0.0
▁日	0.0
▁东	0.0
▁放	0.0
▁无	0.0
▁工	0.0
▁咱	0.0
▁哪	0.0
▁五	0.0
▁者	0.0
▁像	0.0
▁西	0.0
▁该	0.0
▁干	0.0
▁相	0.0
▁信	0.0
▁机	0.0
▁百	0.0
▁特	0.0
▁业	0.0
▁活	0.0
▁师	0.0
▁边	0.0
▁爱	0.0
▁友	0.0
▁新	0.0
▁外	0.0
▁位	0.0
▁更	0.0
▁直	0.0
▁几	0.0
▁第	0.0
▁非	0.0
▁四	0.0
▁题	0.0
▁接	0.0
▁少	0.0
▁哥	0.0
▁死	0.0
▁完	0.0
▁刚	0.0
▁电	0.0
▁气	0.0
▁安	0.0
▁爸	0.0
▁白	0.0
▁告	0.0
▁美	0.0
▁解	0.0
▁叫	0.0
▁月	0.0
▁带	0.0
▁欢	0.0
▁谁	0.0
▁体	0.0
▁喜	0.0
▁部	0.0
▁场	0.0
▁姐	0.0
▁军	0.0
▁万	0.0
▁结	0.0
▁合	0.0
▁难	0.0
▁八	0.0
▁每	0.0
▁目	0.0
▁亲	0.0
▁朋	0.0
▁认	0.0
▁总	0.0
▁加	0.0
▁通	0.0
▁办	0.0
▁马	0.0
▁件	0.0
▁受	0.0
▁任	0.0
▁请	0.0
▁住	0.0
▁王	0.0
▁思	0.0
▁门	0.0
▁名	0.0
▁平	0.0
▁系	0.0
▁文	0.0
▁帮	0.0
▁路	0.0
▁变	0.0
▁记	0.0
▁水	0.0
▁九	0.0
▁算	0.0
▁将	0.0
▁口	0.0
▁男	0.0
▁度	0.0
▁报	0.0
▁六	0.0
▁张	0.0
▁管	0.0
▁够	0.0
▁性	0.0
▁表	0.0
▁提	0.0
▁何	0.0
▁讲	0.0
▁期	0.0
▁拿	0.0
▁保	0.0
▁嘛	0.0
▁司	0.0
▁原	0.0
▁始	0.0
▁此	0.0
▁诉	0.0
▁处	0.0
▁清	0.0
▁内	0.0
▁产	0.0
▁金	0.0
▁晚	0.0
▁早	0.0
▁交	0.0
▁离	0.0
▁眼	0.0
▁队	0.0
▁七	0.0
▁入	0.0
▁山	0.0
▁代	0.0
▁市	0.0
▁海	0.0
▁物	0.0
▁零	0.0
▁望	0.0
▁世	0.0
▁婚	0.0
▁命	0.0
▁越	0.0
▁收	0.0
▁向	0.0
▁花	0.0
▁房	0.0
▁错	0.0
▁节	0.0
▁父	0.0
▁反	0.0
▁战	0.0
▁买	0.0
▁量	0.0
▁或	0.0
▁员	0.0
▁号	0.0
▁千	0.0
▁怕	0.0
▁底	0.0
▁且	0.0
▁品	0.0
▁民	0.0
▁化	0.0
▁爷	0.0
▁并	0.0
▁与	0.0
▁服	0.0
▁需	0.0
▁资	0.0
▁求	0.0
▁教	0.0
▁娘	0.0
▁医	0.0
▁数	0.0
▁院	0.0
▁书	0.0
▁利	0.0
▁往	0.0
▁确	0.0
▁各	0.0
▁单	0.0
▁风	0.0
▁送	0.0
▁必	0.0
▁条	0.0
▁包	0.0
▁准	0.0
▁光	0.0
▁整	0.0
▁病	0.0
▁弟	0.0
▁嗯	0.0
▁计	0.0
▁照	0.0
▁强	0.0
▁务	0.0
▁影	0.0
▁城	0.0
▁夫	0.0
▁俩	0.0
▁决	0.0
▁声	0.0
▁连	0.0
▁乐	0.0
▁息	0.0
▁远	0.0
▁北	0.0
▁至	0.0
▁饭	0.0
▁留	0.0
▁宝	0.0
▁神	0.0
▁近	0.0
▁考	0.0
▁备	0.0
▁案	0.0
▁界	0.0
▁容	0.0
▁况	0.0
▁母	0.0
▁较	0.0
▁持	0.0
▁证	0.0
▁选	0.0
▁制	0.0
▁程	0.0
▁喝	0.0
▁害	0.0
▁字	0.0
▁失	0.0
▁立	0.0
▁台	0.0
▁玩	0.0
▁查	0.0
▁块	0.0
▁便	0.0
▁挺	0.0
▁段	0.0
▁周	0.0
▁由	0.0
▁句	0.0
▁紧	0.0
▁李	0.0
▁据	0.0
▁杀	0.0
▁南	0.0
▁商	0.0
▁识	0.0
▁网	0.0
▁式	0.0
▁愿	0.0
▁传	0.0
▁流	0.0
▁消	0.0
▁伤	0.0
▁根	0.0
▁演	0.0
▁希	0.0
▁故	0.0
▁坐	0.0
▁建	0.0
▁注	0.0
▁许	0.0
▁调	0.0
▁共	0.0
▁空	0.0
▁半	0.0
▁却	0.0
▁酒	0.0
▁联	0.0
▁微	0.0
▁言	0.0
▁肯	0.0
▁赶	0.0
▁跑	0.0
▁笑	0.0
▁区	0.0
▁岁	0.0
▁红	0.0
▁达	0.0
▁官	0.0
▁轻	0.0
▁易	0.0
▁火	0.0
▁线	0.0
▁拉	0.0
▁首	0.0
▁导	0.0
▁团	0.0
▁慢	0.0
▁指	0.0
▁写	0.0
▁深	0.0
▁论	0.0
▁片	0.0
▁改	0.0
▁啥	0.0
▁满	0.0
▁步	0.0
▁音	0.0
▁功	0.0
▁聊	0.0
▁客	0.0
▁未	0.0
▁格	0.0
▁基	0.0
▁睡	0.0
▁观	0.0
▁份	0.0
▁视	0.0
▁色	0.0
▁价	0.0
▁政	0.0
▁转	0.0
▁终	0.0
▁复	0.0
▁啦	0.0
▁呃	0.0
▁阿	0.0
▁倒	0.0
▁义	0.0
▁警	0.0
▁林	0.0
▁使	0.0
▁运	0.0
▁科	0.0
▁苦	0.0
▁待	0.0
▁费	0.0
▁随	0.0
▁救	0.0
▁试	0.0
▁班	0.0
▁敢	0.0
▁精	0.0
▁及	0.0
▁术	0.0
▁造	0.0
▁续	0.0
▁养	0.0
▁展	0.0
▁答	0.0
▁绝	0.0
▁众	0.0
▁站	0.0
▁妹	0.0
▁差	0.0
▁谈	0.0
▁卖	0.0
▁播	0.0
▁创	0.0
▁领	0.0
▁象	0.0
▁志	0.0
▁投	0.0
▁习	0.0
▁兄	0.0
▁元	0.0
▁皇	0.0
▁专	0.0
▁态	0.0
▁急	0.0
▁局	0.0
▁兴	0.0
▁楚	0.0
▁飞	0.0
▁护	0.0
▁装	0.0
▁热	0.0
▁奶	0.0
▁取	0.0
▁设	0.0
▁游	0.0
▁读	0.0
▁福	0.0
▁药	0.0
▁担	0.0
▁历	0.0
▁忙	0.0
▁规	0.0
▁掉	0.0
▁刘	0.0
▁切	0.0
▁断	0.0
▁尽	0.0
▁社	0.0
▁久	0.0
▁支	0.0
▁板	0.0
▁星	0.0
▁姑	0.0
▁曾	0.0
▁突	0.0
▁除	0.0
▁华	0.0
▁责	0.0
▁排	0.0
▁京	0.0
▁值	0.0
▁士	0.0
▁统	0.0
▁换	0.0
▁德	0.0
▁衣	0.0
▁组	0.0
▁示	0.0
▁脸	0.0
▁刻	0.0
▁黑	0.0
▁遇	0.0
▁虽	0.0
▁顾	0.0
▁戏	0.0
▁怪	0.0
▁懂	0.0
▁叔	0.0
▁夜	0.0
▁陈	0.0
▁亮	0.0
▁江	0.0
▁兵	0.0
▁负	0.0
▁布	0.0
▁青	0.0
▁落	0.0
▁推	0.0
▁假	0.0
▁类	0.0
▁令	0.0
▁技	0.0
▁英	0.0
▁质	0.0
▁黄	0.0
▁治	0.0
▁形	0.0
▁助	0.0
▁球	0.0
▁歌	0.0
▁参	0.0
▁广	0.0
▁继	0.0
▁简	0.0
▁画	0.0
▁奇	0.0
▁陪	0.0
▁阳	0.0
▁险	0.0
▁须	0.0
▁念	0.0
▁迎	0.0
▁幸	0.0
▁抓	0.0
▁破	0.0
▁另	0.0
▁争	0.0
▁竟	0.0
▁户	0.0
▁律	0.0
▁择	0.0
▁究	0.0
▁龙	0.0
▁足	0.0
▁店	0.0
▁脑	0.0
▁斯	0.0
▁党	0.0
▁权	0.0
▁约	0.0
▁疑	0.0
▁议	0.0
▁严	0.0
▁密	0.0
▁克	0.0
▁存	0.0
▁穿	0.0
▁承	0.0
▁校	0.0
▁击	0.0
▁际	0.0
▁标	0.0
▁云	0.0
▁营	0.0
▁察	0.0
▁超	0.0
▁食	0.0
▁集	0.0
▁级	0.0
▁礼	0.0
▁静	0.0
▁背	0.0
▁武	0.0
▁初	0.0
▁拍	0.0
▁梦	0.0
▁响	0.0
▁验	0.0
▁角	0.0
▁石	0.0
▁股	0.0
▁追	0.0
▁怀	0.0
▁婆	0.0
▁适	0.0
▁独	0.0
▁忘	0.0
▁血	0.0
▁醒	0.0
▁具	0.0
▁罪	0.0
▁享	0.0
▁毛	0.0
▁香	0.0
▁状	0.0
▁配	0.0
▁靠	0.0
▁语	0.0
▁仅	0.0
▁低	0.0
▁细	0.0
▁米	0.0
▁既	0.0
▁钟	0.0
▁极	0.0
▁停	0.0
▁味	0.0
▁则	0.0
▁油	0.0
▁器	0.0
▁楼	0.0
▁菜	0.0
▁研	0.0
▁互	0.0
▁压	0.0
▁贵	0.0
▁村	0.0
▁属	0.0
▁派	0.0
▁乎	0.0
▁坏	0.0
▁控	0.0
▁显	0.0
▁图	0.0
▁双	0.0
▁职	0.0
▁永	0.0
▁哈	0.0
▁鬼	0.0
▁依	0.0
▁料	0.0
▁按	0.0
▁府	0.0
▁坚	0.0
▁某	0.0
▁甚	0.0
▁居	0.0
▁练	0.0
▁顺	0.0
▁模	0.0
▁即	0.0
▁州	0.0
▁引	0.0
▁乱	0.0
▁速	0.0
▁庭	0.0
▁朝	0.0
▁室	0.0
▁似	0.0
▁付	0.0
▁划	0.0
▁尔	0.0
▁境	0.0
▁犯	0.0
▁烦	0.0
▁环	0.0
▁伙	0.0
▁巴	0.0
▁春	0.0
▁古	0.0
▁妇	0.0
▁势	0.0
▁款	0.0
▁增	0.0
▁财	0.0
▁河	0.0
▁虑	0.0
▁守	0.0
▁汉	0.0
▁枪	0.0
▁妻	0.0
▁爹	0.0
▁弄	0.0
▁委	0.0
▁企	0.0
▁冲	0.0
▁置	0.0
▁麻	0.0
▁育	0.0
▁项	0.0
▁防	0.0
▁胡	0.0
▁杨	0.0
▁致	0.0
▁辈	0.0
▁括	0.0
▁毕	0.0
▁卫	0.0
▁修	0.0
▁史	0.0
▁型	0.0
▁牌	0.0
▁嘴	0.0
▁苏	0.0
▁群	0.0
▁举	0.0
▁痛	0.0
▁座	0.0
▁概	0.0
▁搞	0.0
▁围	0.0
▁土	0.0
▁毒	0.0
▁唱	0.0
▁冷	0.0
▁累	0.0
▁玉	0.0
▁获	0.0
▁误	0.0
▁跳	0.0
▁脚	0.0
▁雨	0.0
▁剧	0.0
▁休	0.0
▁皮	0.0
▁止	0.0
▁济	0.0
▁肉	0.0
▁丽	0.0
▁借	0.0
▁铁	0.0
▁牛	0.0
▁哭	0.0
▁招	0.0
▁闹	0.0
▁优	0.0
▁银	0.0
▁温	0.0
▁狗	0.0
▁退	0.0
▁洗	0.0
▁拜	0.0
▁否	0.0
▁票	0.0
▁偷	0.0
▁抱	0.0
▁博	0.0
▁般	0.0
▁效	0.0
▁套	0.0
▁维	0.0
▁普	0.0
▁康	0.0
▁富	0.0
▁宫	0.0
▁索	0.0
▁罗	0.0
▁堂	0.0
▁智	0.0
▁省	0.0
▁介	0.0
▁孙	0.0
▁灵	0.0
▁评	0.0
▁藏	0.0
▁称	0.0
▁课	0.0
▁货	0.0
▁姨	0.0
▁艺	0.0
▁骗	0.0
▁雪	0.0
▁赛	0.0
▁景	0.0
▁昨	0.0
▁健	0.0
▁鱼	0.0
▁激	0.0
▁危	0.0
▁熟	0.0
▁圈	0.0
▁闻	0.0
▁监	0.0
▁替	0.0
▁君	0.0
▁恋	0.0
▁良	0.0
▁掌	0.0
▁草	0.0
▁松	0.0
▁供	0.0
▁努	0.0
▁例	0.0
▁短	0.0
▁帝	0.0
▁姓	0.0
▁率	0.0
▁族	0.0
▁亿	0.0
▁赵	0.0
▁蛋	0.0
▁判	0.0
▁预	0.0
▁频	0.0
▁卡	0.0
▁架	0.0
▁纪	0.0
▁弃	0.0
▁秀	0.0
▁兰	0.0
▁检	0.0
▁层	0.0
▁伴	0.0
▁抗	0.0
▁讨	0.0
▁源	0.0
▁夏	0.0
▁咋	0.0
▁惊	0.0
▁录	0.0
▁善	0.0
▁补	0.0
▁刀	0.0
▁充	0.0
▁升	0.0
▁章	0.0
▁午	0.0
▁若	0.0
▁私	0.0
▁吴	0.0
▁素	0.0
▁旅	0.0
▁临	0.0
▁挑	0.0
▁唐	0.0
▁露	0.0
▁树	0.0
▁斗	0.0
▁舞	0.0
▁左	0.0
▁叶	0.0
▁副	0.0
▁晓	0.0
▁厂	0.0
▁弹	0.0
▁印	0.0
▁秘	0.0
▁屋	0.0
▁田	0.0
▁木	0.0
▁困	0.0
▁园	0.0
▁封	0.0
▁逃	0.0
▁批	0.0
▁馆	0.0
▁疼	0.0
▁败	0.0
▁陆	0.0
▁敌	0.0
▁散	0.0
▁采	0.0
▁翻	0.0
▁缺	0.0
▁胜	0.0
▁免	0.0
▁销	0.0
▁鸡	0.0
▁降	0.0
▁波	0.0
▁测	0.0
▁限	0.0
▁释	0.0
▁忍	0.0
▁归	0.0
▁床	0.0
▁餐	0.0
▁茶	0.0
▁码	0.0
▁宁	0.0
▁乡	0.0
▁辛	0.0
▁彩	0.0
▁亚	0.0
▁浪	0.0
▁漂	0.0
▁庆	0.0
▁训	0.0
▁范	0.0
▁烧	0.0
▁词	0.0
▁吵	0.0
▁媳	0.0
▁探	0.0
▁余	0.0
▁恐	0.0
▁积	0.0
▁农	0.0
▁遍	0.0
▁舒	0.0
▁顶	0.0
▁构	0.0
▁呼	0.0
▁丝	0.0
▁执	0.0
▁雅	0.0
▁惯	0.0
▁右	0.0
▁脱	0.0
▁恩	0.0
▁野	0.0
▁折	0.0
▁趣	0.0
▁笔	0.0
▁谓	0.0
▁盘	0.0
▁贝	0.0
▁宣	0.0
▁绍	0.0
▁嘉	0.0
▁宋	0.0
▁抢	0.0
▁嫌	0.0
▁尊	0.0
▁碰	0.0
▁绪	0.0
▁丢	0.0
▁厉	0.0
▁沙	0.0
▁轮	0.0
▁施	0.0
▁织	0.0
▁托	0.0
▁县	0.0
▁策	0.0
▁杯	0.0
▁逼	0.0
▁傻	0.0
▁束	0.0
▁街	0.0
▁疗	0.0
▁益	0.0
▁骨	0.0
▁迷	0.0
▁姻	0.0
▁恶	0.0
▁默	0.0
▁寻	0.0
▁搜	0.0
▁哦	0.0
▁材	0.0
▁吸	0.0
▁劳	0.0
▁勇	0.0
▁占	0.0
▁暴	0.0
▁船	0.0
▁徐	0.0
▁虎	0.0
▁融	0.0
▁异	0.0
▁审	0.0
▁攻	0.0
▁雷	0.0
▁稳	0.0
▁呗	0.0
▁输	0.0
▁睛	0.0
▁臣	0.0
▁端	0.0
▁威	0.0
▁秋	0.0
▁欧	0.0
▁冰	0.0
▁韩	0.0
▁减	0.0
▁操	0.0
▁混	0.0
▁汽	0.0
▁暗	0.0
▁隐	0.0
▁嫂	0.0
▁沉	0.0
▁烟	0.0
▁顿	0.0
▁凭	0.0
▁洋	0.0
▁嫁	0.0
▁购	0.0
▁粉	0.0
▁遗	0.0
▁杂	0.0
▁协	0.0
▁尝	0.0
▁键	0.0
▁亡	0.0
▁秦	0.0
▁纸	0.0
▁拥	0.0
▁革	0.0
▁猫	0.0
▁伯	0.0
▁祝	0.0
▁签	0.0
▁傅	0.0
▁牙	0.0
▁湖	0.0
▁莫	0.0
▁杰	0.0
▁旁	0.0
▁港	0.0
▁劲	0.0
▁宗	0.0
▁偏	0.0
▁触	0.0
▁唯	0.0
▁吓	0.0
▁辆	0.0
▁沈	0.0
▁列	0.0
▁梅	0.0
▁祖	0.0
▁舍	0.0
▁尤	0.0
▁赚	0.0
▁疫	0.0
▁腾	0.0
▁拼	0.0
▁奖	0.0
▁刺	0.0
▁齐	0.0
▁诚	0.0
▁媒	0.0
▁戴	0.0
▁账	0.0
▁炸	0.0
▁骂	0.0
▁避	0.0
▁麦	0.0
▁爆	0.0
▁域	0.0
▁烈	0.0
▁暖	0.0
▁季	0.0
▁猜	0.0
▁佳	0.0
▁净	0.0
▁腿	0.0
▁磨	0.0
▁曲	0.0
▁虚	0.0
▁阵	0.0
▁荣	0.0
▁访	0.0
▁核	0.0
▁鲜	0.0
▁阶	0.0
▁镇	0.0
▁灯	0.0
▁估	0.0
▁剩	0.0
▁硬	0.0
▁租	0.0
▁敬	0.0
▁损	0.0
▁惜	0.0
▁挂	0.0
▁董	0.0
▁巨	0.0
▁忆	0.0
▁登	0.0
▁丈	0.0
▁帅	0.0
▁童	0.0
▁耳	0.0
▁央	0.0
▁软	0.0
▁移	0.0
▁略	0.0
▁额	0.0
▁厅	0.0
▁挥	0.0
▁透	0.0
▁络	0.0
▁弱	0.0
▁珍	0.0
▁恨	0.0
▁巧	0.0
▁丁	0.0
▁谋	0.0
▁孤	0.0
▁豆	0.0
▁诗	0.0
▁冒	0.0
▁狼	0.0
▁渐	0.0
▁峰	0.0
▁售	0.0
▁凡	0.0
▁聚	0.0
▁洞	0.0
▁抽	0.0
▁劝	0.0
▁闭	0.0
▁摆	0.0
▁冬	0.0
▁凶	0.0
▁魔	0.0
▁灭	0.0
▁雄	0.0
▁挣	0.0
▁搬	0.0
▁龄	0.0
▁朱	0.0
▁编	0.0
▁航	0.0
▁席	0.0
▁驾	0.0
▁鼓	0.0
▁授	0.0
▁握	0.0
▁隔	0.0
▁猪	0.0
▁仙	0.0
▁颜	0.0
▁镜	0.0
▁胖	0.0
▁赢	0.0
▁仇	0.0
▁晨	0.0
▁欺	0.0
▁刑	0.0
▁谷	0.0
▁旦	0.0
▁亏	0.0
▁盖	0.0
▁症	0.0
▁喊	0.0
▁蓝	0.0
▁讯	0.0
▁殿	0.0
▁梁	0.0
▁躲	0.0
▁旧	0.0
▁针	0.0
▁箱	0.0
▁丰	0.0
▁洲	0.0
▁鞋	0.0
▁征	0.0
▁蒙	0.0
▁伟	0.0
▁袋	0.0
▁庄	0.0
▁患	0.0
▁怨	0.0
▁佛	0.0
▁稍	0.0
▁朵	0.0
▁纳	0.0
▁吉	0.0
▁川	0.0
▁典	0.0
▁迹	0.0
▁瑞	0.0
▁废	0.0
▁搭	0.0
▁涨	0.0
▁汤	0.0
▁启	0.0
▁桌	0.0
▁摸	0.0
▁赔	0.0
▁宜	0.0
▁纯	0.0
▁贴	0.0
▁聪	0.0
▁熊	0.0
▁延	0.0
▁版	0.0
▁瓶	0.0
▁缘	0.0
▁距	0.0
▁甜	0.0
▁析	0.0
▁盛	0.0
▁孕	0.0
▁彻	0.0
▁桥	0.0
▁尚	0.0
▁染	0.0
▁撞	0.0
▁途	0.0
▁沟	0.0
▁疯	0.0
▁敏	0.0
▁瞧	0.0
▁漫	0.0
▁胆	0.0
▁诺	0.0
▁刷	0.0
▁饿	0.0
▁仍	0.0
▁喂	0.0
▁辞	0.0
▁迟	0.0
▁淡	0.0
▁郑	0.0
▁歉	0.0
▁宾	0.0
▁扰	0.0
▁圆	0.0
▁赞	0.0
▁肚	0.0
▁慧	0.0
▁泪	0.0
▁吹	0.0
▁拖	0.0
▁遭	0.0
▁穷	0.0
▁罚	0.0
▁悔	0.0
▁绿	0.0
▁忽	0.0
▁唉	0.0
▁毫	0.0
▁绩	0.0
▁暂	0.0
▁射	0.0
▁岛	0.0
▁拾	0.0
▁珠	0.0
▁欠	0.0
▁忠	0.0
▁陷	0.0
▁阴	0.0
▁尼	0.0
▁悲	0.0
▁糊	0.0
▁撤	0.0
▁徒	0.0
▁剑	0.0
▁币	0.0
▁娜	0.0
▁违	0.0
▁泡	0.0
▁仗	0.0
▁粮	0.0
▁培	0.0
▁趟	0.0
▁菲	0.0
▁拒	0.0
▁棒	0.0
▁脾	0.0
▁赏	0.0
▁窗	0.0
▁宇	0.0
▁闲	0.0
▁附	0.0
▁踏	0.0
▁彼	0.0
▁涉	0.0
▁撒	0.0
▁锁	0.0
▁魂	0.0
▁羊	0.0
▁述	0.0
▁屈	0.0
▁库	0.0
▁滚	0.0
▁凉	0.0
▁颗	0.0
▁寒	0.0
▁呐	0.0
▁墙	0.0
▁娃	0.0
▁序	0.0
▁迪	0.0
▁丹	0.0
▁扬	0.0
▁瞎	0.0
▁递	0.0
▁凤	0.0
▁碗	0.0
▁屁	0.0
▁锅	0.0
▁奔	0.0
▁幅	0.0
▁债	0.0
▁糖	0.0
▁奋	0.0
▁汇	0.0
▁圣	0.0
▁订	0.0
▁偶	0.0
▁残	0.0
▁宽	0.0
▁狂	0.0
▁鼠	0.0
▁狠	0.0
▁幕	0.0
▁固	0.0
▁竞	0.0
▁蜜	0.0
▁吐	0.0
▁摄	0.0
▁骑	0.0
▁篇	0.0
▁毁	0.0
▁尾	0.0
▁摇	0.0
▁奥	0.0
▁厚	0.0
▁妖	0.0
▁禁	0.0
▁逐	0.0
▁均	0.0
▁尸	0.0
▁冠	0.0
▁阅	0.0
▁辑	0.0
▁捕	0.0
▁载	0.0
▁郭	0.0
▁俺	0.0
▁诊	0.0
▁扎	0.0
▁欲	0.0
▁鸟	0.0
▁柔	0.0
▁迫	0.0
▁豪	0.0
▁踪	0.0
▁扔	0.0
▁碎	0.0
▁末	0.0
▁娶	0.0
▁扫	0.0
▁朕	0.0
▁励	0.0
▁乔	0.0
▁闺	0.0
▁档	0.0
▁厨	0.0
▁倍	0.0
▁湾	0.0
▁郎	0.0
▁幼	0.0
▁纷	0.0
▁奴	0.0
▁阻	0.0
▁饮	0.0
▁怒	0.0
▁妙	0.0
▁琴	0.0
▁曹	0.0
▁脏	0.0
▁牵	0.0
▁瓜	0.0
▁滴	0.0
▁炮	0.0
▁缓	0.0
▁含	0.0
▁献	0.0
▁柜	0.0
▁仔	0.0
▁艾	0.0
▁潜	0.0
▁赌	0.0
▁震	0.0
▁础	0.0
▁添	0.0
▁兔	0.0
▁焦	0.0
▁躺	0.0
▁森	0.0
▁肥	0.0
▁孝	0.0
▁洪	0.0
▁偿	0.0
▁悉	0.0
▁撑	0.0
▁甘	0.0
▁桃	0.0
▁苹	0.0
▁魏	0.0
▁鲁	0.0
▁池	0.0
▁狱	0.0
▁厌	0.0
▁纠	0.0
▁朗	0.0
▁贷	0.0
▁铺	0.0
▁殊	0.0
▁坦	0.0
▁爬	0.0
▁擦	0.0
▁酸	0.0
▁钢	0.0
▁咖	0.0
▁瞒	0.0
▁蛮	0.0
▁谅	0.0
▁耐	0.0
▁申	0.0
▁夸	0.0
▁欣	0.0
▁诶	0.0
▁驶	0.0
▁屏	0.0
▁烂	0.0
▁凌	0.0
▁胎	0.0
▁甲	0.0
▁仪	0.0
▁貌	0.0
▁番	0.0
▁涂	0.0
▁抬	0.0
▁舅	0.0
▁扯	0.0
▁鹿	0.0
▁摩	0.0
▁诸	0.0
▁秒	0.0
▁泽	0.0
▁埋	0.0
▁蒋	0.0
▁隆	0.0
▁赖	0.0
▁奸	0.0
▁咬	0.0
▁恢	0.0
▁宿	0.0
▁乖	0.0
▁邀	0.0
▁抵	0.0
▁臭	0.0
▁闪	0.0
▁莉	0.0
▁熬	0.0
▁链	0.0
▁盯	0.0
▁侦	0.0
▁灾	0.0
▁堆	0.0
▁灰	0.0
▁盾	0.0
▁卷	0.0
▁截	0.0
▁障	0.0
▁恰	0.0
▁佩	0.0
▁戒	0.0
▁莲	0.0
▁裁	0.0
▁芬	0.0
▁戚	0.0
▁匪	0.0
▁滑	0.0
▁趁	0.0
▁询	0.0
▁绑	0.0
▁辣	0.0
▁挖	0.0
▁俗	0.0
▁祸	0.0
▁符	0.0
▁扣	0.0
▁插	0.0
▁仁	0.0
▁壁	0.0
▁腰	0.0
▁斤	0.0
▁燕	0.0
▁筑	0.0
▁柱	0.0
▁夺	0.0
▁援	0.0
▁映	0.0
▁壮	0.0
▁杜	0.0
▁摔	0.0
▁润	0.0
▁恭	0.0
▁乌	0.0
▁慰	0.0
▁啡	0.0
▁著	0.0
▁井	0.0
▁牢	0.0
▁跌	0.0
▁荐	0.0
▁拔	0.0
▁惹	0.0
▁侯	0.0
▁玲	0.0
▁炎	0.0
▁胸	0.0
▁旗	0.0
▁牲	0.0
▁喽	0.0
▁涛	0.0
▁衡	0.0
▁矛	0.0
▁伍	0.0
▁贤	0.0
▁惨	0.0
▁糟	0.0
▁慌	0.0
▁伏	0.0
▁醉	0.0
▁仓	0.0
▁拆	0.0
▁乘	0.0
▁疾	0.0
▁鼻	0.0
▁潮	0.0
▁予	0.0
▁奉	0.0
▁伦	0.0
▁劫	0.0
▁伊	0.0
▁怜	0.0
▁孟	0.0
▁肺	0.0
▁忧	0.0
▁倾	0.0
▁矩	0.0
▁荒	0.0
▁奏	0.0
▁塔	0.0
▁塞	0.0
▁迅	0.0
▁轨	0.0
▁瞬	0.0
▁丫	0.0
▁狐	0.0
▁叛	0.0
▁繁	0.0
▁眠	0.0
▁谱	0.0
▁孔	0.0
▁悄	0.0
▁泰	0.0
▁姜	0.0
▁侵	0.0
▁妃	0.0
▁柳	0.0
▁冯	0.0
▁洛	0.0
▁岸	0.0
▁凯	0.0
▁陛	0.0
▁幺	0.0
▁仿	0.0
▁氏	0.0
▁窝	0.0
▁曼	0.0
▁挡	0.0
▁浩	0.0
▁盟	0.0
▁轩	0.0
▁牺	0.0
▁贫	0.0
▁绕	0.0
▁谎	0.0
▁措	0.0
▁扶	0.0
▁梯	0.0
▁炼	0.0
▁勤	0.0
▁霸	0.0
▁横	0.0
▁罢	0.0
▁呆	0.0
▁税	0.0
▁桂	0.0
▁哎	0.0
▁慕	0.0
▁植	0.0
▁允	0.0
▁荡	0.0
▁洁	0.0
▁肖	0.0
▁耗	0.0
▁贼	0.0
▁艰	0.0
▁贺	0.0
▁幻	0.0
▁饱	0.0
▁胃	0.0
▁袭	0.0
▁廷	0.0
▁泥	0.0
▁丧	0.0
▁缩	0.0
▁砸	0.0
▁姥	0.0
▁拦	0.0
▁扮	0.0
▁糕	0.0
▁肤	0.0
▁猴	0.0
▁脆	0.0
▁炒	0.0
▁耀	0.0
▁盗	0.0
▁邓	0.0
▁扩	0.0
▁纵	0.0
▁振	0.0
▁敲	0.0
▁鹏	0.0
▁姆	0.0
▁湿	0.0
▁丑	0.0
▁召	0.0
▁苗	0.0
▁伸	0.0
▁惑	0.0
▁碍	0.0
▁萨	0.0
▁瘦	0.0
▁闯	0.0
▁迁	0.0
▁坑	0.0
▁弯	0.0
▁卑	0.0
▁尖	0.0
▁遥	0.0
▁侠	0.0
▁犹	0.0
▁押	0.0
▁冤	0.0
▁钻	0.0
▁汗	0.0
▁闷	0.0
▁邻	0.0
▁淘	0.0
▁抛	0.0
▁妆	0.0
▁贾	0.0
▁侧	0.0
▁傲	0.0
▁描	0.0
▁耍	0.0
▁猛	0.0
▁薇	0.0
▁裤	0.0
▁憾	0.0
▁督	0.0
▁贸	0.0
▁墨	0.0
▁勒	0.0
▁薄	0.0
▁嘞	0.0
▁渡	0.0
▁紫	0.0
▁悟	0.0
▁锦	0.0
▁溜	0.0
▁逆	0.0
▁惠	0.0
▁辉	0.0
▁贪	0.0
▁圾	0.0
▁垃	0.0
▁券	0.0
▁燃	0.0
▁虫	0.0
▁悠	0.0
▁伪	0.0
▁尿	0.0
▁懒	0.0
▁俊	0.0
▁寄	0.0
▁歇	0.0
▁盒	0.0
▁潘	0.0
▁储	0.0
▁愈	0.0
▁脉	0.0
▁粗	0.0
▁返	0.0
▁昌	0.0
▁泉	0.0
▁蔡	0.0
▁愧	0.0
▁赤	0.0
▁岳	0.0
▁婷	0.0
▁猎	0.0
▁饼	0.0
▁肩	0.0
▁勾	0.0
▁巡	0.0
▁竹	0.0
▁催	0.0
▁陌	0.0
▁踩	0.0
▁促	0.0
▁扭	0.0
▁堵	0.0
▁酷	0.0
▁芳	0.0
▁逛	0.0
▁陵	0.0
▁耽	0.0
▁凑	0.0
▁寿	0.0
▁缝	0.0
▁剪	0.0
▁郁	0.0
▁宅	0.0
▁抚	0.0
▁筹	0.0
▁沿	0.0
▁烤	0.0
▁奈	0.0
▁挨	0.0
▁晋	0.0
▁崩	0.0
▁浮	0.0
▁阁	0.0
▁彭	0.0
▁裂	0.0
▁眉	0.0
▁崇	0.0
▁桑	0.0
▁辩	0.0
▁漏	0.0
▁稀	0.0
▁液	0.0
▁汪	0.0
▁袁	0.0
▁掩	0.0
▁浑	0.0
▁坡	0.0
▁晕	0.0
▁缠	0.0
▁仰	0.0
▁挤	0.0
▁睁	0.0
▁羽	0.0
▁岗	0.0
▁捡	0.0
▁墓	0.0
▁综	0.0
▁矿	0.0
▁妥	0.0
▁厕	0.0
▁辱	0.0
▁惧	0.0
▁逗	0.0
▁帽	0.0
▁寸	0.0
▁搁	0.0
▁跨	0.0
▁渴	0.0
▁饰	0.0
▁璃	0.0
▁琳	0.0
▁爽	0.0
▁愤	0.0
▁饶	0.0
▁卧	0.0
▁誓	0.0
▁滋	0.0
▁鉴	0.0
▁腐	0.0
▁鸭	0.0
▁蛇	0.0
▁妮	0.0
▁莱	0.0
▁哟	0.0
▁钥	0.0
▁甄	0.0
▁肠	0.0
▁畅	0.0
▁慎	0.0
▁悬	0.0
▁逻	0.0
▁胁	0.0
▁辰	0.0
▁呈	0.0
▁棋	0.0
▁寨	0.0
▁覆	0.0
▁萌	0.0
▁姚	0.0
▁津	0.0
▁笨	0.0
▁轰	0.0
▁乏	0.0
▁匙	0.0
▁摊	0.0
▁陶	0.0
▁恼	0.0
▁昏	0.0
▁抑	0.0
▁姿	0.0
▁愁	0.0
▁誉	0.0
▁椅	0.0
▁羞	0.0
▁澡	0.0
▁踢	0.0
▁晶	0.0
▁萧	0.0
▁箭	0.0
▁宠	0.0
▁罩	0.0
▁羡	0.0
▁亦	0.0
▁祥	0.0
▁串	0.0
▁昆	0.0
▁煮	0.0
▁疏	0.0
▁纹	0.0
▁泄	0.0
▁痕	0.0
▁喷	0.0
▁册	0.0
▁跃	0.0
▁卢	0.0
▁岩	0.0
▁跪	0.0
▁兽	0.0
▁桶	0.0
▁飘	0.0
▁漠	0.0
▁堪	0.0
▁哄	0.0
▁寂	0.0
▁崔	0.0
▁腹	0.0
▁癌	0.0
▁拳	0.0
▁驻	0.0
▁拨	0.0
▁霍	0.0
▁诞	0.0
▁捐	0.0
▁御	0.0
▁榜	0.0
▁唤	0.0
▁荷	0.0
▁径	0.0
▁署	0.0
▁锋	0.0
▁玛	0.0
▁匆	0.0
▁恒	0.0
▁吕	0.0
▁邮	0.0
▁圳	0.0
▁黎	0.0
▁掏	0.0
▁莎	0.0
▁寞	0.0
▁佐	0.0
▁诈	0.0
▁盐	0.0
▁牧	0.0
▁叹	0.0
▁尬	0.0
▁匹	0.0
▁狸	0.0
▁膀	0.0
▁谨	0.0
▁尘	0.0
▁驱	0.0
▁乳	0.0
▁晒	0.0
▁宴	0.0
▁辜	0.0
▁哲	0.0
▁铜	0.0
▁薪	0.0
▁盆	0.0
▁割	0.0
▁忌	0.0
▁旋	0.0
▁翼	0.0
▁哀	0.0
▁咨	0.0
▁遵	0.0
▁夹	0.0
▁侣	0.0
▁译	0.0
▁胞	0.0
▁浅	0.0
▁邦	0.0
▁俄	0.0
▁弗	0.0
▁豫	0.0
▁甭	0.0
▁乃	0.0
▁扛	0.0
▁杭	0.0
▁瓦	0.0
▁槽	0.0
▁污	0.0
▁琢	0.0
▁尴	0.0
▁枝	0.0
▁详	0.0
▁佑	0.0
▁柴	0.0
▁盼	0.0
▁抖	0.0
▁惩	0.0
▁捷	0.0
▁葬	0.0
▁贡	0.0
▁艳	0.0
▁塑	0.0
▁茫	0.0
▁叨	0.0
▁拐	0.0
▁浓	0.0
▁捉	0.0
▁憋	0.0
▁稿	0.0
▁苍	0.0
▁葛	0.0
▁扑	0.0
▁娱	0.0
▁赋	0.0
▁杆	0.0
▁绘	0.0
▁聆	0.0
▁肌	0.0
▁婴	0.0
▁摘	0.0
▁岂	0.0
▁呵	0.0
▁冻	0.0
▁泳	0.0
▁揭	0.0
▁坤	0.0
▁盈	0.0
▁毅	0.0
▁撕	0.0
▁娇	0.0
▁唠	0.0
▁宏	0.0
▁吊	0.0
▁籍	0.0
▁楠	0.0
▁肃	0.0
▁抹	0.0
▁玄	0.0
▁湘	0.0
▁迈	0.0
▁酱	0.0
▁骄	0.0
▁咐	0.0
▁扇	0.0
▁幽	0.0
▁疲	0.0
▁邪	0.0
▁吞	0.0
▁趋	0.0
▁尺	0.0
▁玻	0.0
▁溃	0.0
▁诱	0.0
▁翠	0.0
▁兼	0.0
▁辅	0.0
▁岭	0.0
▁栏	0.0
▁柏	0.0
▁址	0.0
▁寺	0.0
▁逢	0.0
▁琪	0.0
▁慈	0.0
▁愣	0.0
▁契	0.0
▁渠	0.0
▁齿	0.0
▁薛	0.0
▁拟	0.0
▁填	0.0
▁坛	0.0
▁抄	0.0
▁痴	0.0
▁役	0.0
▁绳	0.0
▁擅	0.0
▁晃	0.0
▁斌	0.0
▁愉	0.0
▁届	0.0
▁悦	0.0
▁旨	0.0
▁砍	0.0
▁弥	0.0
▁挽	0.0
▁肝	0.0
▁鸣	0.0
▁庙	0.0
▁烫	0.0
▁聘	0.0
▁皆	0.0
▁婶	0.0
▁舌	0.0
▁枉	0.0
▁赫	0.0
▁蓉	0.0
▁瞅	0.0
▁阔	0.0
▁俱	0.0
▁循	0.0
▁鸿	0.0
▁彪	0.0
▁伺	0.0
▁堡	0.0
▁谦	0.0
▁剂	0.0
▁洒	0.0
▁赴	0.0
▁妨	0.0
▁磊	0.0
▁嘱	0.0
▁蝶	0.0
▁兆	0.0
▁绣	0.0
▁豹	0.0
▁锻	0.0
▁篮	0.0
▁陕	0.0
▁霉	0.0
▁涵	0.0
▁疆	0.0
▁蠢	0.0
▁丸	0.0
▁铃	0.0
▁浙	0.0
▁萝	0.0
▁庞	0.0
▁泛	0.0
▁芝	0.0
▁煤	0.0
▁甩	0.0
▁氛	0.0
▁页	0.0
▁逸	0.0
▁袖	0.0
▁携	0.0
▁躁	0.0
▁夕	0.0
▁匠	0.0
▁蹈	0.0
▁坊	0.0
▁雾	0.0
▁蹲	0.0
▁颠	0.0
▁脂	0.0
▁塌	0.0
▁棵	0.0
▁鹰	0.0
▁澳	0.0
▁哇	0.0
▁纽	0.0
▁筋	0.0
▁脖	0.0
▁棉	0.0
▁渣	0.0
▁寡	0.0
▁践	0.0
▁侄	0.0
▁披	0.0
▁魅	0.0
▁虹	0.0
▁肿	0.0
▁胶	0.0
▁霞	0.0
▁罐	0.0
▁晴	0.0
▁卿	0.0
▁拓	0.0
▁耻	0.0
▁宪	0.0
▁砖	0.0
▁歪	0.0
▁兜	0.0
▁衰	0.0
▁歹	0.0
▁捧	0.0
▁雕	0.0
▁穆	0.0
▁栋	0.0
▁瑶	0.0
▁毙	0.0
▁衷	0.0
▁膜	0.0
▁囊	0.0
▁垫	0.0
▁莹	0.0
▁吻	0.0
▁嘟	0.0
▁舰	0.0
▁虾	0.0
▁壳	0.0
▁勉	0.0
▁穴	0.0
▁裙	0.0
▁旺	0.0
▁柯	0.0
▁磕	0.0
▁贩	0.0
▁腻	0.0
▁卜	0.0
▁蹦	0.0
▁茹	0.0
▁驴	0.0
▁臂	0.0
▁删	0.0
▁菌	0.0
▁妾	0.0
▁蜂	0.0
▁祭	0.0
▁菊	0.0
▁咸	0.0
▁淑	0.0
▁笼	0.0
▁涯	0.0
▁碧	0.0
▁骚	0.0
▁宙	0.0
▁皓	0.0
▁赐	0.0
▁晰	0.0
▁腔	0.0
▁龟	0.0
▁泼	0.0
▁鹅	0.0
▁啪	0.0
▁巾	0.0
▁沾	0.0
▁炉	0.0
▁醋	0.0
▁澜	0.0
▁朴	0.0
▁棍	0.0
▁伞	0.0
▁雀	0.0
▁赠	0.0
▁妞	0.0
▁淋	0.0
▁刮	0.0
▁汁	0.0
▁椒	0.0
▁埃	0.0
▁嚷	0.0
▁盲	0.0
▁窃	0.0
▁辽	0.0
▁贱	0.0
▁滩	0.0
▁昭	0.0
▁贯	0.0
▁珊	0.0
▁涌	0.0
▁辨	0.0
▁捞	0.0
▁仲	0.0
▁拘	0.0
▁碑	0.0
▁侍	0.0
▁剿	0.0
▁搅	0.0
▁狮	0.0
▁藤	0.0
▁旭	0.0
▁翅	0.0
▁滨	0.0
▁禀	0.0
▁瑟	0.0
▁遮	0.0
▁斩	0.0
▁攒	0.0
▁犬	0.0
▁挫	0.0
▁僧	0.0
▁吩	0.0
▁渊	0.0
▁蒂	0.0
▁萍	0.0
▁庸	0.0
▁蓄	0.0
▁鼎	0.0
▁咪	0.0
▁姬	0.0
▁溪	0.0
▁郡	0.0
▁镖	0.0
▁怡	0.0
▁杉	0.0
▁畏	0.0
▁瓷	0.0
▁枚	0.0
▁煎	0.0
▁劣	0.0
▁饺	0.0
▁妄	0.0
▁卓	0.0
▁蔽	0.0
▁蒸	0.0
▁垂	0.0
▁嘲	0.0
▁慨	0.0
▁谊	0.0
▁蹭	0.0
▁逮	0.0
▁锐	0.0
▁钉	0.0
▁舟	0.0
▁沃	0.0
▁凝	0.0
▁翔	0.0
▁颈	0.0
▁靖	0.0
▁灌	0.0
▁膊	0.0
▁崖	0.0
▁娟	0.0
▁胳	0.0
▁铭	0.0
▁灿	0.0
▁亭	0.0
▁粒	0.0
▁卸	0.0
▁咕	0.0
▁坎	0.0
▁攀	0.0
▁婿	0.0
▁奢	0.0
▁茂	0.0
▁趴	0.0
▁耿	0.0
▁捏	0.0
▁怖	0.0
▁浴	0.0
▁婉	0.0
▁煌	0.0
▁霖	0.0
▁揍	0.0
▁昂	0.0
▁壶	0.0
▁驰	0.0
▁械	0.0
▁卦	0.0
▁粥	0.0
▁尹	0.0
▁瘾	0.0
▁雇	0.0
▁翰	0.0
▁肆	0.0
▁曦	0.0
▁寇	0.0
▁厢	0.0
▁杠	0.0
▁屠	0.0
▁芒	0.0
▁谣	0.0
▁沫	0.0
▁掘	0.0
▁酬	0.0
▁讼	0.0
▁乾	0.0
▁玫	0.0
▁瑰	0.0
▁惦	0.0
▁逊	0.0
▁儒	0.0
▁肾	0.0
▁粹	0.0
▁愚	0.0
▁渔	0.0
▁暑	0.0
▁伐	0.0
▁潇	0.0
▁喘	0.0
▁敦	0.0
▁斥	0.0
▁翁	0.0
▁帖	0.0
▁纱	0.0
▁梳	0.0
▁缴	0.0
▁茅	0.0
▁谭	0.0
▁氧	0.0
▁遣	0.0
▁履	0.0
▁刹	0.0
▁枕	0.0
▁婢	0.0
▁徽	0.0
▁轿	0.0
▁寓	0.0
▁咽	0.0
▁嗓	0.0
▁叉	0.0
▁捣	0.0
▁裹	0.0
▁览	0.0
▁拯	0.0
▁疚	0.0
▁蜀	0.0
▁丛	0.0
▁框	0.0
▁斑	0.0
▁宵	0.0
▁郝	0.0
▁蛙	0.0
▁熙	0.0
▁祁	0.0
▁哑	0.0
▁葱	0.0
▁唇	0.0
▁韦	0.0
▁媛	0.0
▁魄	0.0
▁锤	0.0
▁绵	0.0
▁炫	0.0
▁吨	0.0
▁稻	0.0
▁碌	0.0
▁刊	0.0
▁漆	0.0
▁搏	0.0
▁讶	0.0
▁痒	0.0
▁枫	0.0
▁妒	0.0
▁冥	0.0
▁郊	0.0
▁爵	0.0
▁逝	0.0
▁栽	0.0
▁叠	0.0
▁蚁	0.0
▁裕	0.0
▁剥	0.0
▁帕	0.0
▁谐	0.0
▁巫	0.0
▁颇	0.0
▁娥	0.0
▁廊	0.0
▁蕾	0.0
▁丘	0.0
▁丞	0.0
▁葡	0.0
▁坠	0.0
▁鸦	0.0
▁糗	0.0
▁虐	0.0
▁唬	0.0
▁屎	0.0
▁顽	0.0
▁巷	0.0
▁硅	0.0
▁罕	0.0
▁殖	0.0
▁嘿	0.0
▁韵	0.0
▁歧	0.0
▁垮	0.0
▁馈	0.0
▁淮	0.0
▁昊	0.0
▁宰	0.0
▁钦	0.0
▁霜	0.0
▁兑	0.0
▁萄	0.0
▁塘	0.0
▁胀	0.0
▁樱	0.0
▁枯	0.0
▁咳	0.0
▁窑	0.0
▁募	0.0
▁缸	0.0
▁仑	0.0
▁昧	0.0
▁氓	0.0
▁恕	0.0
▁叮	0.0
▁吼	0.0
▁坟	0.0
▁轴	0.0
▁贞	0.0
▁赎	0.0
▁嫩	0.0
▁帆	0.0
▁蚂	0.0
▁僵	0.0
▁颖	0.0
▁噜	0.0
▁咒	0.0
▁琐	0.0
▁勃	0.0
▁芯	0.0
▁绸	0.0
▁哼	0.0
▁仨	0.0
▁挪	0.0
▁狡	0.0
▁禅	0.0
▁粘	0.0
▁雯	0.0
▁扒	0.0
▁恳	0.0
▁蔬	0.0
▁匈	0.0
▁钓	0.0
▁桐	0.0
▁菇	0.0
▁哒	0.0
▁稚	0.0
▁膏	0.0
▁纲	0.0
▁狄	0.0
▁廉	0.0
▁硕	0.0
▁衙	0.0
▁艘	0.0
▁廖	0.0
▁蟹	0.0
▁腊	0.0
▁邱	0.0
▁缉	0.0
▁曝	0.0
▁桩	0.0
▁啤	0.0
▁嫉	0.0
▁棚	0.0
▁矮	0.0
▁汰	0.0
▁衍	0.0
▁拽	0.0
▁削	0.0
▁彤	0.0
▁斜	0.0
▁樊	0.0
▁揉	0.0
▁馨	0.0
▁钩	0.0
▁浦	0.0
▁肢	0.0
▁敷	0.0
▁喻	0.0
▁鞭	0.0
▁耕	0.0
▁瞪	0.0
▁掐	0.0
▁屡	0.0
▁榴	0.0
▁勋	0.0
▁泊	0.0
▁竭	0.0
▁鹤	0.0
▁溢	0.0
▁淳	0.0
▁倩	0.0
▁驳	0.0
▁抠	0.0
▁筒	0.0
▁捅	0.0
▁窄	0.0
▁鄙	0.0
▁嗦	0.0
▁袍	0.0
▁劈	0.0
▁炖	0.0
▁裸	0.0
▁贬	0.0
▁敞	0.0
▁嘎	0.0
▁淹	0.0
▁耶	0.0
▁秩	0.0
▁舱	0.0
▁厦	0.0
▁叙	0.0
▁孽	0.0
▁筷	0.0
▁浇	0.0
▁饥	0.0
▁噩	0.0
▁蚊	0.0
▁兮	0.0
▁皱	0.0
▁侃	0.0
▁辟	0.0
▁弊	0.0
▁袜	0.0
▁吾	0.0
▁俘	0.0
▁芸	0.0
▁夷	0.0
▁芦	0.0
▁倡	0.0
▁囚	0.0
▁琦	0.0
▁哨	0.0
▁巢	0.0
▁烛	0.0
▁帐	0.0
▁燥	0.0
▁讽	0.0
▁俞	0.0
▁馅	0.0
▁柿	0.0
▁墅	0.0
▁妍	0.0
▁瘤	0.0
▁沦	0.0
▁衬	0.0
▁瑜	0.0
▁蒜	0.0
▁蛛	0.0
▁勿	0.0
▁窟	0.0
▁沛	0.0
▁磁	0.0
▁狭	0.0
▁栈	0.0
▁懵	0.0
▁酿	0.0
▁戈	0.0
▁邵	0.0
▁龚	0.0
▁衫	0.0
▁勺	0.0
▁哗	0.0
▁叽	0.0
▁畜	0.0
▁爪	0.0
▁惫	0.0
▁颁	0.0
▁浸	0.0
▁摧	0.0
▁勘	0.0
▁惕	0.0
▁蔓	0.0
▁馒	0.0
▁陀	0.0
▁挠	0.0
▁豁	0.0
▁帘	0.0
▁淀	0.0
▁藩	0.0
▁蜡	0.0
▁凳	0.0
▁蘑	0.0
▁琼	0.0
▁棺	0.0
▁蝴	0.0
▁骆	0.0
▁掰	0.0
▁枣	0.0
▁遂	0.0
▁飙	0.0
▁咧	0.0
▁掀	0.0
▁杏	0.0
▁梨	0.0
▁嗑	0.0
▁棠	0.0
▁绽	0.0
▁捆	0.0
▁舆	0.0
▁肇	0.0
▁葩	0.0
▁呦	0.0
▁膝	0.0
▁鹊	0.0
▁揣	0.0
▁瓣	0.0
▁靓	0.0
▁卵	0.0
▁鲍	0.0
▁炭	0.0
▁戳	0.0
▁颤	0.0
▁禄	0.0
▁菩	0.0
▁崛	0.0
▁驸	0.0
▁佣	0.0
▁眨	0.0
▁聂	0.0
▁乙	0.0
▁拧	0.0
▁嘻	0.0
▁靳	0.0
▁佟	0.0
▁喵	0.0
▁阎	0.0
▁拢	0.0
▁厘	0.0
▁凰	0.0
▁疤	0.0
▁螺	0.0
▁淇	0.0
▁拎	0.0
▁涩	0.0
▁嗨	0.0
▁魁	0.0
▁薯	0.0
▁歼	0.0
▁沪	0.0
▁筛	0.0
▁谍	0.0
▁揪	0.0
▁刁	0.0
▁秃	0.0
▁谜	0.0
▁肪	0.0
▁撇	0.0
▁绊	0.0
▁逞	0.0
▁滥	0.0
▁寝	0.0
▁麟	0.0
▁奕	0.0
▁侮	0.0
▁喉	0.0
▁柄	0.0
▁荆	0.0
▁撼	0.0
▁窦	0.0
▁姗	0.0
▁乞	0.0
▁艇	0.0
▁竖	0.0
▁剖	0.0
▁嗽	0.0
▁腕	0.0
▁捂	0.0
▁鸽	0.0
▁刃	0.0
▁弓	0.0
▁粤	0.0
▁辙	0.0
▁梗	0.0
▁茄	0.0
▁泣	0.0
▁茜	0.0
▁驼	0.0
▁倔	0.0
▁冈	0.0
▁啃	0.0
▁蹄	0.0
▁唧	0.0
▁祈	0.0
▁腺	0.0
▁焰	0.0
▁崽	0.0
▁睿	0.0
▁苛	0.0
▁凿	0.0
▁倭	0.0
▁窍	0.0
▁骤	0.0
▁槛	0.0
▁诏	0.0
▁碳	0.0
▁芽	0.0
▁浆	0.0
▁隶	0.0
▁搂	0.0
▁彬	0.0
▁睦	0.0
▁诀	0.0
▁岔	0.0
▁掺	0.0
▁嚼	0.0
▁殷	0.0
▁吁	0.0
▁啰	0.0
▁亩	0.0
▁侈	0.0
▁纤	0.0
▁倦	0.0
▁揽	0.0
▁媚	0.0
▁莽	0.0
▁潭	0.0
▁赃	0.0
▁睹	0.0
▁脊	0.0
▁逍	0.0
▁淼	0.0
▁沸	0.0
▁峡	0.0
▁眷	0.0
▁屯	0.0
▁仆	0.0
▁璐	0.0
▁雁	0.0
▁澄	0.0
▁渗	0.0
▁咔	0.0
▁啸	0.0
▁怂	0.0
▁娄	0.0
▁惶	0.0
▁锡	0.0
▁恍	0.0
▁秉	0.0
▁猾	0.0
▁挟	0.0
▁舔	0.0
▁弦	0.0
▁阱	0.0
▁俭	0.0
▁嚣	0.0
▁搓	0.0
▁懈	0.0
▁诡	0.0
▁隙	0.0
▁苟	0.0
▁倘	0.0
▁瘫	0.0
▁扁	0.0
▁鑫	0.0
▁撩	0.0
▁蓬	0.0
▁铲	0.0
▁峥	0.0
▁巅	0.0
▁葫	0.0
▁膳	0.0
▁狙	0.0
▁晏	0.0
▁祠	0.0
▁峻	0.0
▁尉	0.0
▁毯	0.0
▁沧	0.0
▁熏	0.0
▁咯	0.0
▁株	0.0
▁沐	0.0
▁锣	0.0
▁奎	0.0
▁霄	0.0
▁彦	0.0
▁叭	0.0
▁臻	0.0
▁昔	0.0
▁灶	0.0
▁傍	0.0
▁腥	0.0
▁屑	0.0
▁禾	0.0
▁彰	0.0
▁冉	0.0
▁矫	0.0
▁滞	0.0
▁瘩	0.0
▁匀	0.0
▁椎	0.0
▁槐	0.0
▁岚	0.0
▁跷	0.0
▁剔	0.0
▁倪	0.0
▁盏	0.0
▁泌	0.0
▁灸	0.0
▁隧	0.0
▁函	0.0
▁壤	0.0
▁蹊	0.0
▁剃	0.0
▁拌	0.0
▁葵	0.0
▁琅	0.0
▁炳	0.0
▁跋	0.0
▁瑾	0.0
▁哩	0.0
▁蔷	0.0
▁鳌	0.0
▁莺	0.0
▁诵	0.0
▁疙	0.0
▁吱	0.0
▁蓓	0.0
▁绎	0.0
▁匿	0.0
▁铮	0.0
▁怼	0.0
▁踹	0.0
▁嗅	0.0
▁焚	0.0
▁蝇	0.0
▁躯	0.0
▁祟	0.0
▁橘	0.0
▁韧	0.0
▁辖	0.0
▁砂	0.0
▁粪	0.0
▁擒	0.0
▁诬	0.0
▁黏	0.0
▁衔	0.0
▁溺	0.0
▁蜘	0.0
▁篷	0.0
▁贿	0.0
▁闫	0.0
▁焕	0.0
▁邢	0.0
▁兹	0.0
▁窖	0.0
▁铸	0.0
▁旬	0.0
▁惭	0.0
▁佬	0.0
▁咚	0.0
▁裴	0.0
▁裳	0.0
▁犀	0.0
▁弘	0.0
▁莓	0.0
▁钏	0.0
▁鄂	0.0
▁伽	0.0
▁陋	0.0
▁鞠	0.0
▁氪	0.0
▁窜	0.0
▁垒	0.0
▁橙	0.0
▁讳	0.0
▁甥	0.0
▁淫	0.0
▁拱	0.0
▁袱	0.0
▁坨	0.0
▁暧	0.0
▁渺	0.0
▁蕉	0.0
▁晗	0.0
▁茬	0.0
▁盔	0.0
▁蚕	0.0
▁妓	0.0
▁僻	0.0
▁朽	0.0
▁挚	0.0
▁呛	0.0
▁绅	0.0
▁擎	0.0
▁喇	0.0
▁鳄	0.0
▁巩	0.0
▁遛	0.0
▁蜗	0.0
▁俯	0.0
▁汹	0.0
▁奠	0.0
▁猩	0.0
▁钙	0.0
▁悍	0.0
▁躬	0.0
▁菱	0.0
▁翘	0.0
▁琉	0.0
▁虏	0.0
▁稼	0.0
▁凄	0.0
▁炕	0.0
▁皂	0.0
▁漱	0.0
▁斋	0.0
▁撂	0.0
▁芭	0.0
▁敛	0.0
▁阮	0.0
▁阀	0.0
▁缚	0.0
▁懦	0.0
▁亨	0.0
▁螃	0.0
▁侥	0.0
▁膨	0.0
▁筝	0.0
▁惟	0.0
▁黛	0.0
▁茨	0.0
▁眯	0.0
▁怠	0.0
▁辐	0.0
▁捎	0.0
▁殴	0.0
▁桓	0.0
▁瞄	0.0
▁冀	0.0
▁雍	0.0
▁酵	0.0
▁霾	0.0
▁檬	0.0
▁哺	0.0
▁裔	0.0
▁兢	0.0
▁烹	0.0
▁麒	0.0
▁绒	0.0
▁丐	0.0
▁娅	0.0
▁钞	0.0
▁垄	0.0
▁笛	0.0
▁赣	0.0
▁蕊	0.0
▁暮	0.0
▁噪	0.0
▁沮	0.0
▁庇	0.0
▁肋	0.0
▁橡	0.0
▁摁	0.0
▁痘	0.0
▁棘	0.0
▁绷	0.0
▁拂	0.0
▁刨	0.0
▁晾	0.0
▁蹬	0.0
▁鸥	0.0
▁璇	0.0
▁掠	0.0
▁瘟	0.0
▁俐	0.0
▁糙	0.0
▁骏	0.0
▁牡	0.0
▁撵	0.0
▁沥	0.0
▁嘘	0.0
▁庶	0.0
▁喧	0.0
▁赁	0.0
▁瞳	0.0
▁涡	0.0
▁迭	0.0
▁肘	0.0
▁颂	0.0
▁埔	0.0
▁觅	0.0
▁珑	0.0
▁跤	0.0
▁朔	0.0
▁詹	0.0
▁暇	0.0
▁梭	0.0
▁惺	0.0
▁甸	0.0
▁怯	0.0
▁坝	0.0
▁聋	0.0
▁闸	0.0
▁赦	0.0
▁屉	0.0
▁吟	0.0
▁凸	0.0
▁拴	0.0
▁堤	0.0
▁斧	0.0
▁矣	0.0
▁呸	0.0
▁啼	0.0
▁韬	0.0
▁钧	0.0
▁坞	0.0
▁纺	0.0
▁氢	0.0
▁嵩	0.0
▁镯	0.0
▁檐	0.0
▁髓	0.0
▁涕	0.0
▁剁	0.0
▁稽	0.0
▁烨	0.0
▁钮	0.0
▁闽	0.0
▁仕	0.0
▁驯	0.0
▁吭	0.0
▁漓	0.0
▁眸	0.0
▁鞅	0.0
▁煞	0.0
▁枢	0.0
▁昕	0.0
▁畔	0.0
▁矶	0.0
▁疹	0.0
▁呱	0.0
▁吏	0.0
▁熄	0.0
▁泻	0.0
▁蛤	0.0
▁拙	0.0
▁甫	0.0
▁禽	0.0
▁厮	0.0
▁乍	0.0
▁蝉	0.0
▁撬	0.0
▁嘀	0.0
▁鲨	0.0
▁衅	0.0
▁萱	0.0
▁霹	0.0
▁旷	0.0
▁坷	0.0
▁辫	0.0
▁蟆	0.0
▁眶	0.0
▁呜	0.0
▁猬	0.0
▁嬷	0.0
▁靶	0.0
▁萎	0.0
▁雳	0.0
▁煲	0.0
▁溯	0.0
▁狈	0.0
▁蚀	0.0
▁滤	0.0
▁恙	0.0
▁瑛	0.0
▁嫣	0.0
▁栓	0.0
▁驿	0.0
▁碟	0.0
▁祷	0.0
▁犊	0.0
▁哆	0.0
▁宛	0.0
▁灼	0.0
▁榨	0.0
▁寥	0.0
▁翟	0.0
▁栗	0.0
▁滔	0.0
▁馋	0.0
▁杖	0.0
▁茉	0.0
▁庐	0.0
▁饲	0.0
▁隋	0.0
▁旱	0.0
▁崎	0.0
▁颅	0.0
▁焉	0.0
▁篱	0.0
▁晟	0.0
▁墩	0.0
▁扳	0.0
▁咎	0.0
▁竿	0.0
▁僚	0.0
▁霆	0.0
▁溶	0.0
▁俏	0.0
▁堕	0.0
▁冕	0.0
▁叩	0.0
▁绰	0.0
▁洽	0.0
▁襄	0.0
▁蛊	0.0
▁缅	0.0
▁侨	0.0
▁伶	0.0
▁蕴	0.0
▁酥	0.0
▁坂	0.0
▁庚	0.0
▁拇	0.0
▁卒	0.0
▁诛	0.0
▁禧	0.0
▁瓢	0.0
▁扉	0.0
▁饷	0.0
▁锯	0.0
▁诅	0.0
▁烘	0.0
▁浏	0.0
▁榆	0.0
▁痰	0.0
▁窥	0.0
▁鲸	0.0
▁捋	0.0
▁戎	0.0
▁笋	0.0
▁诫	0.0
▁璋	0.0
▁珈	0.0
▁癫	0.0
▁囤	0.0
▁厥	0.0
▁癖	0.0
▁芹	0.0
▁翩	0.0
▁匣	0.0
▁噬	0.0
▁栖	0.0
▁蝎	0.0
▁锄	0.0
▁玺	0.0
▁疮	0.0
▁槿	0.0
▁猥	0.0
▁缕	0.0
▁蔑	0.0
▁汝	0.0
▁珂	0.0
▁撮	0.0
▁坪	0.0
▁蒲	0.0
▁撰	0.0
▁倚	0.0
▁嗷	0.0
▁荧	0.0
▁芙	0.0
▁豚	0.0
▁筱	0.0
▁敖	0.0
▁猝	0.0
▁孵	0.0
▁徊	0.0
▁弈	0.0
▁赘	0.0
▁辗	0.0
▁徘	0.0
▁烙	0.0
▁娲	0.0
▁嚎	0.0
▁迢	0.0
▁绥	0.0
▁羁	0.0
▁屌	0.0
▁铅	0.0
▁澎	0.0
▁嬛	0.0
▁煽	0.0
▁饵	0.0
▁逾	0.0
▁晦	0.0
▁虞	0.0
▁筐	0.0
▁抒	0.0
▁哧	0.0
▁瑕	0.0
▁醇	0.0
▁祀	0.0
▁岐	0.0
▁潼	0.0
▁惚	0.0
▁苑	0.0
▁靡	0.0
▁菠	0.0
▁赡	0.0
▁惰	0.0
▁梓	0.0
▁铛	0.0
▁澈	0.0
▁莞	0.0
▁呕	0.0
▁邝	0.0
▁驭	0.0
▁砰	0.0
▁轼	0.0
▁慷	0.0
▁窒	0.0
▁绞	0.0
▁絮	0.0
▁虔	0.0
▁惮	0.0
▁柬	0.0
▁蹋	0.0
▁羲	0.0
▁拣	0.0
▁嗡	0.0
▁隘	0.0
▁卤	0.0
▁帜	0.0
▁雌	0.0
▁唾	0.0
▁邹	0.0
▁俑	0.0
▁咏	0.0
▁婪	0.0
▁粟	0.0
▁碾	0.0
▁崭	0.0
▁钝	0.0
▁彝	0.0
▁陡	0.0
▁谛	0.0
▁秤	0.0
▁淌	0.0
▁炊	0.0
▁磅	0.0
▁鲤	0.0
▁羹	0.0
▁殉	0.0
▁曰	0.0
▁阐	0.0
▁萤	0.0
▁鬟	0.0
▁拭	0.0
▁沁	0.0
▁滇	0.0
▁梧	0.0
▁瞻	0.0
▁烁	0.0
▁淤	0.0
▁凹	0.0
▁撸	0.0
▁祺	0.0
▁腌	0.0
▁缪	0.0
▁棕	0.0
▁痊	0.0
▁忑	0.0
▁矜	0.0
▁柠	0.0
▁忐	0.0
▁讹	0.0
▁瀚	0.0
▁尧	0.0
▁芊	0.0
▁昼	0.0
▁憨	0.0
▁鳞	0.0
▁匮	0.0
▁鸳	0.0
▁鸯	0.0
▁湃	0.0
▁馍	0.0
▁屿	0.0
▁沽	0.0
▁栾	0.0
▁蝠	0.0
▁绛	0.0
▁窘	0.0
▁巍	0.0
▁悯	0.0
▁焊	0.0
▁浊	0.0
▁谴	0.0
▁娴	0.0
▁畴	0.0
▁湛	0.0
▁螂	0.0
▁韭	0.0
▁哮	0.0
▁拷	0.0
▁攥	0.0
▁凛	0.0
▁颓	0.0
▁恺	0.0
▁粑	0.0
▁襟	0.0
▁蝙	0.0
▁洼	0.0
▁笃	0.0
▁骁	0.0
▁渝	0.0
▁酌	0.0
▁殃	0.0
▁乒	0.0
▁臊	0.0
▁疵	0.0
▁谬	0.0
▁诧	0.0
▁袄	0.0
▁锈	0.0
▁膛	0.0
▁瘸	0.0
▁嫖	0.0
▁梢	0.0
▁棱	0.0
▁沼	0.0
▁嚓	0.0
▁耸	0.0
▁喳	0.0
▁涮	0.0
▁橱	0.0
▁舵	0.0
▁瞩	0.0
▁腑	0.0
▁岑	0.0
▁檀	0.0
▁痪	0.0
▁墟	0.0
▁蔚	0.0
▁捍	0.0
▁徙	0.0
▁棣	0.0
▁猖	0.0
▁恬	0.0
▁嫦	0.0
▁掷	0.0
▁饪	0.0
▁掂	0.0
▁噔	0.0
▁恤	0.0
▁叱	0.0
▁芷	0.0
▁楷	0.0
▁弩	0.0
▁茧	0.0
▁镶	0.0
▁诠	0.0
▁匡	0.0
▁咙	0.0
▁亵	0.0
▁擂	0.0
▁杞	0.0
▁乓	0.0
▁渤	0.0
▁藉	0.0
▁渭	0.0
▁憔	0.0
▁禹	0.0
▁睐	0.0
▁抉	0.0
▁趾	0.0
▁茸	0.0
▁忒	0.0
▁悴	0.0
▁纬	0.0
▁浚	0.0
▁懊	0.0
▁溅	0.0
▁琛	0.0
▁遏	0.0
▁靴	0.0
▁戮	0.0
▁翎	0.0
▁谕	0.0
▁濒	0.0
▁锵	0.0
▁嬉	0.0
▁籽	0.0
▁叼	0.0
▁殆	0.0
▁苔	0.0
▁灏	0.0
▁嗖	0.0
▁俪	0.0
▁嗜	0.0
▁冶	0.0
▁亢	0.0
▁磋	0.0
▁汀	0.0
▁讪	0.0
▁萃	0.0
▁紊	0.0
▁菁	0.0
▁镑	0.0
▁脯	0.0
▁缆	0.0
▁婊	0.0
▁赂	0.0
▁哉	0.0
▁蕃	0.0
▁昱	0.0
▁舜	0.0
▁迄	0.0
▁嚏	0.0
▁蜓	0.0
▁黔	0.0
▁犟	0.0
▁汐	0.0
▁嗣	0.0
▁昵	0.0
▁唆	0.0
▁蛾	0.0
▁黯	0.0
▁绯	0.0
▁瀑	0.0
▁掖	0.0
▁狩	0.0
▁憬	0.0
▁崴	0.0
▁髦	0.0
▁褪	0.0
▁酝	0.0
▁弧	0.0
▁咄	0.0
▁吝	0.0
▁馄	0.0
▁娩	0.0
▁袒	0.0
▁窿	0.0
▁玮	0.0
▁蜻	0.0
▁阙	0.0
▁篡	0.0
▁邯	0.0
▁朦	0.0
▁邑	0.0
▁粽	0.0
▁捶	0.0
▁喃	0.0
▁嫔	0.0
▁钗	0.0
▁穗	0.0
▁寐	0.0
▁骼	0.0
▁胭	0.0
▁噎	0.0
▁碱	0.0
▁荤	0.0
▁矢	0.0
▁笙	0.0
▁芥	0.0
▁厄	0.0
▁廓	0.0
▁扼	0.0
▁毋	0.0
▁糯	0.0
▁惋	0.0
▁纶	0.0
▁碜	0.0
▁胧	0.0
▁懿	0.0
▁沏	0.0
▁偃	0.0
▁痹	0.0
▁慑	0.0
▁鹦	0.0
▁娠	0.0
▁绢	0.0
▁铐	0.0
▁傀	0.0
▁饨	0.0
▁孜	0.0
▁儡	0.0
▁孰	0.0
▁焱	0.0
▁幌	0.0
▁峭	0.0
▁伎	0.0
▁椰	0.0
▁譬	0.0
▁藕	0.0
▁貂	0.0
▁坍	0.0
▁鞍	0.0
▁铝	0.0
▁蘸	0.0
▁猿	0.0
▁炙	0.0
▁琊	0.0
▁峙	0.0
▁硝	0.0
▁幂	0.0
▁钰	0.0
▁眩	0.0
▁亥	0.0
▁鹉	0.0
▁簇	0.0
▁簧	0.0
▁睫	0.0
▁斟	0.0
▁颐	0.0
▁薰	0.0
▁癞	0.0
▁祛	0.0
▁缎	0.0
▁咣	0.0
▁燎	0.0
▁簸	0.0
▁簿	0.0
▁绚	0.0
▁邋	0.0
▁稷	0.0
▁嵌	0.0
▁肮	0.0
▁闵	0.0
▁辍	0.0
▁枸	0.0
▁撅	0.0
▁苇	0.0
▁曙	0.0
▁悼	0.0
▁汶	0.0
▁匕	0.0
▁腮	0.0
▁皖	0.0
▁汲	0.0
▁琶	0.0
▁鼹	0.0
▁喀	0.0
▁礁	0.0
▁汕	0.0
▁颊	0.0
▁怔	0.0
▁釜	0.0
▁砌	0.0
▁畸	0.0
▁峨	0.0
▁鹃	0.0
▁奄	0.0
▁骡	0.0
▁莘	0.0
▁斐	0.0
▁芈	0.0
▁荔	0.0
▁蟑	0.0
▁缇	0.0
▁犒	0.0
▁宓	0.0
▁汾	0.0
▁憧	0.0
▁沌	0.0
▁宦	0.0
▁咤	0.0
▁攘	0.0
▁吆	0.0
▁梵	0.0
▁漩	0.0
▁阂	0.0
▁吒	0.0
▁翊	0.0
▁芜	0.0
▁秧	0.0
▁缔	0.0
▁晌	0.0
▁剐	0.0
▁芋	0.0
▁蜕	0.0
▁彷	0.0
▁牟	0.0
▁徨	0.0
▁诲	0.0
▁臀	0.0
▁杵	0.0
▁荫	0.0
▁蹿	0.0
▁豌	0.0
▁榄	0.0
▁迂	0.0
▁琵	0.0
▁拗	0.0
▁帷	0.0
▁楞	0.0
▁嘶	0.0
▁橄	0.0
▁胺	0.0
▁圭	0.0
▁砚	0.0
▁藻	0.0
▁凋	0.0
▁殡	0.0
▁啄	0.0
▁褒	0.0
▁嗝	0.0
▁嫡	0.0
▁恃	0.0
▁濡	0.0
▁缜	0.0
▁孺	0.0
▁泸	0.0
▁妊	0.0
▁衩	0.0
▁驹	0.0
▁榻	0.0
▁腆	0.0
▁鹂	0.0
▁箍	0.0
▁璧	0.0
▁遢	0.0
▁悚	0.0
▁熔	0.0
▁弛	0.0
▁诋	0.0
▁鹭	0.0
▁羚	0.0
▁嘚	0.0
▁骸	0.0
▁瞿	0.0
▁铠	0.0
▁瘪	0.0
▁邸	0.0
▁痨	0.0
▁辘	0.0
▁屹	0.0
▁忏	0.0
▁浒	0.0
▁钊	0.0
▁潦	0.0
▁肴	0.0
▁怅	0.0
▁蚯	0.0
▁茵	0.0
▁胚	0.0
▁蚓	0.0
▁戬	0.0
▁瘀	0.0
▁翡	0.0
▁恪	0.0
▁卉	0.0
▁雏	0.0
▁祯	0.0
▁蝌	0.0
▁谏	0.0
▁钵	0.0
▁蚪	0.0
▁馊	0.0
▁嗒	0.0
▁寅	0.0
▁犁	0.0
▁纣	0.0
▁淆	0.0
▁娼	0.0
▁锥	0.0
▁啬	0.0
▁晖	0.0
▁夯	0.0
▁竣	0.0
▁丙	0.0
▁褚	0.0
▁氨	0.0
▁轧	0.0
▁褥	0.0
▁褂	0.0
▁钳	0.0
▁疡	0.0
▁竺	0.0
▁轲	0.0
▁淞	0.0
▁摹	0.0
▁胤	0.0
▁鳅	0.0
▁珀	0.0
▁匾	0.0
▁偕	0.0
▁觑	0.0
▁扈	0.0
▁傣	0.0
▁阑	0.0
▁枷	0.0
▁绫	0.0
▁烊	0.0
▁柚	0.0
▁腼	0.0
▁珺	0.0
▁怦	0.0
▁碉	0.0
▁峪	0.0
▁缀	0.0
▁裘	0.0
▁俸	0.0
▁羯	0.0
▁姊	0.0
▁疟	0.0
▁砺	0.0
▁嘣	0.0
▁釉	0.0
▁溥	0.0
▁盎	0.0
▁熠	0.0
▁垢	0.0
▁胰	0.0
▁哽	0.0
▁槟	0.0
▁摞	0.0
▁囧	0.0
▁遁	0.0
▁痞	0.0
▁熹	0.0
▁忡	0.0
▁稠	0.0
▁顷	0.0
▁渎	0.0
▁瑚	0.0
▁卯	0.0
▁炅	0.0
▁烽	0.0
▁瞑	0.0
▁褶	0.0
▁硫	0.0
▁嘈	0.0
▁壹	0.0
▁悖	0.0
▁酪	0.0
▁跺	0.0
▁阜	0.0
▁帛	0.0
▁蟒	0.0
▁漪	0.0
▁迦	0.0
▁蝗	0.0
▁咀	0.0
▁谤	0.0
▁辕	0.0
▁绮	0.0
▁睬	0.0
▁搀	0.0
▁裆	0.0
▁鳖	0.0
▁囡	0.0
▁羔	0.0
▁痣	0.0
▁滕	0.0
▁佘	0.0
▁樟	0.0
▁韶	0.0
▁赈	0.0
▁劾	0.0
▁霓	0.0
▁唏	0.0
▁脐	0.0
▁闰	0.0
▁沓	0.0
▁瓮	0.0
▁笠	0.0
▁篓	0.0
▁洱	0.0
▁涅	0.0
▁诽	0.0
▁暄	0.0
▁蚱	0.0
▁栅	0.0
▁攸	0.0
▁酣	0.0
▁阪	0.0
▁囔	0.0
▁榕	0.0
▁婧	0.0
▁骇	0.0
▁陨	0.0
▁沂	0.0
▁憎	0.0
▁壕	0.0
▁磷	0.0
▁璀	0.0
▁璨	0.0
▁醺	0.0
▁惬	0.0
▁喋	0.0
▁瘁	0.0
▁炽	0.0
▁羿	0.0
▁簪	0.0
▁褐	0.0
▁驮	0.0
▁冽	0.0
▁芮	0.0
▁辄	0.0
▁咆	0.0
▁渍	0.0
▁觐	0.0
▁蛰	0.0
▁炷	0.0
▁驷	0.0
▁帚	0.0
▁蜷	0.0
▁邂	0.0
▁逅	0.0
▁秽	0.0
▁琰	0.0
▁缭	0.0
▁俨	0.0
▁龌	0.0
▁龊	0.0
▁涟	0.0
▁掇	0.0
▁噼	0.0
▁炬	0.0
▁哔	0.0
▁佯	0.0
▁粱	0.0
▁霁	0.0
▁夭	0.0
▁鱿	0.0
▁陇	0.0
▁擀	0.0
▁馁	0.0
▁盹	0.0
▁瞥	0.0
▁壑	0.0
▁焖	0.0
▁蚌	0.0
▁蛟	0.0
▁蚝	0.0
▁囱	0.0
▁脓	0.0
▁抿	0.0
▁蒿	0.0
▁飓	0.0
▁渲	0.0
▁宸	0.0
▁酗	0.0
▁荻	0.0
▁弑	0.0
▁缥	0.0
▁偎	0.0
▁宕	0.0
▁耘	0.0
▁溉	0.0
▁瘴	0.0
▁涝	0.0
▁瞌	0.0
▁垛	0.0
▁咿	0.0
▁垦	0.0
▁苞	0.0
▁缈	0.0
▁惆	0.0
▁町	0.0
▁鹑	0.0
▁汛	0.0
▁抡	0.0
▁慵	0.0
▁耙	0.0
▁砥	0.0
▁浣	0.0
▁噱	0.0
▁孬	0.0
▁札	0.0
▁弼	0.0
▁萦	0.0
▁挞	0.0
▁泾	0.0
▁钾	0.0
▁镳	0.0
▁酋	0.0
▁讷	0.0
▁舶	0.0
▁圃	0.0
▁汴	0.0
▁戾	0.0
▁昀	0.0
▁穹	0.0
▁锂	0.0
▁镀	0.0
▁眺	0.0
▁捺	0.0
▁猕	0.0
▁阚	0.0
▁骋	0.0
▁悸	0.0
▁蜚	0.0
▁咩	0.0
▁讥	0.0
▁篆	0.0
▁鸠	0.0
▁哐	0.0
▁幢	0.0
▁锚	0.0
▁螳	0.0
▁徇	0.0
▁翱	0.0
▁蔼	0.0
▁踞	0.0
▁蔗	0.0
▁漉	0.0
▁枭	0.0
▁衲	0.0
▁漳	0.0
▁漾	0.0
▁歆	0.0
▁烬	0.0
▁曳	0.0
▁岌	0.0
▁孚	0.0
▁桨	0.0
▁戛	0.0
▁呲	0.0
▁娓	0.0
▁箫	0.0
▁獭	0.0
▁芃	0.0
▁涓	0.0
▁戍	0.0
▁摒	0.0
▁轱	0.0
▁踝	0.0
▁沱	0.0
▁锢	0.0
▁抨	0.0
▁堰	0.0
▁昙	0.0
▁鹌	0.0
▁迸	0.0
▁蔻	0.0
▁龈	0.0
▁泯	0.0
▁骛	0.0
▁痔	0.0
▁泵	0.0
▁淄	0.0
<unk>	0.0
,	-3.0793092250823975
s	-3.2667055130004883
.	-3.29972505569458
▁the	-3.410860538482666
▁to	-3.9061927795410156
▁of	-3.9839489459991455
'	-4.036639213562012
▁and	-4.0855255126953125
▁a	-4.089085102081299
▁I	-4.305517673492432
▁that	-4.348528861999512
▁in	-4.456568241119385
▁you	-4.613068103790283
▁it	-4.7137956619262695
t	-4.766039848327637
▁And	-4.84895658493042
▁is	-4.854188442230225
ed	-5.0170698165893555
▁was	-5.093398094177246
ing	-5.103677749633789
▁for	-5.204978942871094
d	-5.257482528686523
▁we	-5.276183128356934
▁be	-5.389384746551514
▁this	-5.399356842041016
▁with	-5.414078712463379
▁on	-5.422883987426758
re	-5.455564975738525
▁have	-5.484206676483154
▁he	-5.523540019989014
?	-5.624161720275879
▁not	-5.65152645111084
▁are	-5.703823566436768
▁as	-5.707267761230469
ly	-5.708613872528076
▁they	-5.729920387268066
▁so	-5.758395671844482
▁at	-5.771866321563721
m	-5.776381492614746
▁The	-5.818376064300537
▁his	-5.846983909606934
▁like	-5.8631086349487305
▁had	-5.881385326385498
▁know	-5.888774871826172
▁So	-5.920199871063232
▁But	-5.940944671630859
▁all	-5.9421563148498535
▁do	-5.948474884033203
▁what	-5.9518537521362305
y	-5.965413570404053
▁can	-5.965898036956787
▁about	-5.978898525238037
▁one	-5.984485149383545
▁me	-5.9956440925598145
-	-6.004962921142578
▁from	-6.0235700607299805
▁or	-6.024879455566406
▁my	-6.048595905303955
er	-6.099796295166016
▁there	-6.105676174163818
n	-6.122408390045166
▁by	-6.15990686416626
▁an	-6.161947250366211
▁her	-6.1729021072387695
▁It	-6.17716646194458
▁your	-6.182454586029053
▁just	-6.184143543243408
▁but	-6.190065383911133
▁A	-6.19753885269165
▁out	-6.222074031829834
▁were	-6.256936073303223
▁up	-6.281222820281982
▁if	-6.283702850341797
▁You	-6.289416790008545
▁people	-6.333522319793701
▁think	-6.342583656311035
e	-6.344571113586426
▁she	-6.350161552429199
▁would	-6.350259780883789
ve	-6.387085914611816
▁their	-6.420565605163574
r	-6.429366111755371
▁them	-6.436819553375244
▁who	-6.4376020431518555
▁which	-6.444337368011475
▁more	-6.452280044555664
ll	-6.459839344024658
▁He	-6.4608893394470215
▁when	-6.474077224731445
▁our	-6.4879841804504395
▁him	-6.49135684967041
▁will	-6.509509563446045
▁been	-6.529709339141846
▁very	-6.530668258666992
▁We	-6.536848545074463
▁some	-6.546942234039307
▁time	-6.554969787597656
▁has	-6.582649230957031
▁get	-6.592976093292236
al	-6.622397422790527
▁no	-6.642187595367432
▁going	-6.653851509094238
▁said	-6.66790246963501
▁then	-6.677710056304932
▁really	-6.686676979064941
▁don	-6.691840171813965
▁go	-6.699594497680664
▁how	-6.710376739501953
▁into	-6.713206768035889
▁That	-6.724982261657715
▁other	-6.753617286682129
▁now	-6.761973857879639
▁see	-6.762856483459473
es	-6.774074077606201
▁these	-6.784425735473633
▁because	-6.790711402893066
in	-6.794867038726807
l	-6.8099565505981445
▁right	-6.830289363861084
▁here	-6.832637310028076
▁two	-6.835696220397949
▁way	-6.835768222808838
▁could	-6.843723773956299
▁us	-6.847137451171875
▁re	-6.8558855056762695
▁want	-6.865278244018555
▁over	-6.894652843475342
c	-6.903428077697754
▁say	-6.918895244598389
!	-6.920261859893799
le	-6.9379801750183105
▁Ah	-6.940794467926025
▁s	-6.96720552444458
▁They	-6.969954967498779
▁back	-6.975487232208252
▁where	-6.979503154754639
a	-6.985287189483643
o	-6.997920989990234
▁In	-7.014453411102295
▁also	-7.016677379608154
▁those	-7.021406650543213
▁kind	-7.024951457977295
▁ah	-7.0306878089904785
▁things	-7.034976482391357
▁make	-7.035877227783203
g	-7.0463690757751465
p	-7.048717498779297
▁much	-7.049106597900391
▁little	-7.0623459815979
▁than	-7.062572479248047
▁did	-7.064783096313477
▁good	-7.072327613830566
▁first	-7.104486465454102
w	-7.1078081130981445
▁any	-7.130500793457031
or	-7.144915580749512
▁well	-7.148763656616211
▁down	-7.157200336456299
▁man	-7.1719746589660645
▁Um	-7.174161911010742
▁new	-7.178110599517822
▁work	-7.183063507080078
▁This	-7.184913635253906
▁lot	-7.193763256072998
b	-7.219324588775635
▁something	-7.22141170501709
▁There	-7.225668907165527
ion	-7.229638576507568
ri	-7.229814052581787
▁What	-7.2360663414001465
ation	-7.238191604614258
▁thing	-7.241352081298828
S	-7.2447075843811035
▁take	-7.2452497482299805
▁only	-7.24908971786499
th	-7.270369529724121
▁de	-7.274643898010254
▁come	-7.277920722961426
an	-7.278042316436768
ar	-7.289810657501221
▁got	-7.297645092010498
▁being	-7.30587911605835
on	-7.324395179748535
▁She	-7.325541019439697
▁If	-7.32557487487793
▁great	-7.32989501953125
▁through	-7.334607124328613
▁even	-7.337094306945801
ck	-7.349282264709473
▁most	-7.349626064300537
▁should	-7.352904796600342
▁look	-7.355447292327881
▁day	-7.3667755126953125
u	-7.37105655670166
▁actually	-7.374387264251709
▁need	-7.38116979598999
▁before	-7.388303279876709
li	-7.390623569488525
▁un	-7.396080017089844
▁many	-7.396330833435059
able	-7.39901065826416
▁life	-7.401707172393799
▁world	-7.402758598327637
▁years	-7.411466598510742
ity	-7.420567512512207
▁part	-7.443471431732178
ers	-7.443857192993164
h	-7.4513068199157715
▁made	-7.4603753089904785
▁three	-7.461698055267334
▁might	-7.478931427001953
ne	-7.504931449890137
ic	-7.512485504150391
ro	-7.515944957733154
i	-7.518274307250977
▁after	-7.51965856552124
▁own	-7.520639896392822
la	-7.531125545501709
▁different	-7.531583309173584
▁again	-7.532698631286621
▁um	-7.539828300476074
en	-7.548160076141357
▁long	-7.55930233001709
▁To	-7.560531139373779
il	-7.563888072967529
▁mean	-7.5652313232421875
ur	-7.566359996795654
▁never	-7.57199239730835
▁may	-7.5757575035095215
▁c	-7.589511871337891
▁point	-7.590120792388916
ive	-7.5933942794799805
▁off	-7.595764636993408
▁still	-7.59861946105957
▁use	-7.600802421569824
ment	-7.601371765136719
▁let	-7.612334251403809
ra	-7.615990161895752
▁thought	-7.6212077140808105
▁too	-7.626952648162842
it	-7.627072334289551
▁same	-7.629069805145264
▁put	-7.630377292633057
▁every	-7.63162088394165
f	-7.6395463943481445
▁came	-7.640192985534668
▁As	-7.661255836486816
▁love	-7.664141654968262
ter	-7.6706085205078125
▁last	-7.67133903503418
ate	-7.672484397888184
de	-7.6754374504089355
▁When	-7.675754547119141
ness	-7.679129600524902
▁Yeah	-7.68381404876709
se	-7.684687614440918
▁give	-7.687762260437012
el	-7.695614814758301
▁S	-7.7006144523620605
▁For	-7.7110915184021
▁show	-7.715029716491699
ce	-7.71838903427124
▁am	-7.731112003326416
▁old	-7.734551906585693
▁doing	-7.7386794090271
▁Now	-7.740553855895996
▁around	-7.743609428405762
▁e	-7.7442708015441895
ent	-7.748439788818359
▁end	-7.749813079833984
▁find	-7.7500081062316895
▁such	-7.753892421722412
▁sort	-7.755393028259277
na	-7.75850772857666
▁tell	-7.764791488647461
te	-7.768258571624756
▁place	-7.773342609405518
us	-7.786651134490967
▁five	-7.7871832847595215
▁went	-7.787464618682861
ta	-7.787837982177734
lo	-7.795794486999512
▁always	-7.796450138092041
k	-7.796633243560791
▁talk	-7.799617767333984
▁Well	-7.809296131134033
ma	-7.813676834106445
▁yeah	-7.814298152923584
▁another	-7.823408126831055
et	-7.829969882965088
ch	-7.835065841674805
▁year	-7.836605548858643
▁feel	-7.843667030334473
x	-7.8484392166137695
▁didn	-7.850838661193848
▁why	-7.857333660125732
ry	-7.858913421630859
▁Which	-7.859054088592529
▁home	-7.864571571350098
ol	-7.8662590980529785
est	-7.871354103088379
▁Then	-7.873910427093506
▁thousand	-7.87415885925293
▁under	-7.874782562255859
me	-7.875723838806152
▁question	-7.87584924697876
▁away	-7.877384662628174
▁found	-7.888296127319336
▁help	-7.888632297515869
ia	-7.890839099884033
▁does	-7.894448280334473
▁hundred	-7.8960041999816895
z	-7.896128177642822
▁course	-7.89974308013916
man	-7.9014363288879395
▁must	-7.904987812042236
▁men	-7.907471656799316
▁dis	-7.910517692565918
▁o	-7.910518169403076
▁upon	-7.913643836975098
ies	-7.9147210121154785
▁house	-7.9155731201171875
▁next	-7.917472839355469
ge	-7.917983055114746
▁hand	-7.92560338973999
▁head	-7.930882930755615
▁done	-7.935818672180176
▁called	-7.938947677612305
▁start	-7.9448323249816895
▁con	-7.948533058166504
id	-7.950439453125
▁four	-7.954899311065674
▁better	-7.9590067863464355
▁No	-7.9615349769592285
ant	-7.961967468261719
▁g	-7.967541217803955
▁bit	-7.974207878112793
▁person	-7.97513484954834
as	-7.9795684814453125
is	-7.9806013107299805
▁sure	-7.983743667602539
▁Or	-7.987509727478027
▁twenty	-7.992735385894775
ir	-7.993091583251953
▁big	-7.993601322174072
▁fact	-8.000986099243164
ke	-8.004374504089355
less	-8.011700630187988
▁co	-8.014296531677246
▁name	-8.019673347473145
tic	-8.023838996887207
▁mind	-8.023839950561523
▁side	-8.024273872375488
▁few	-8.029852867126465
▁ever	-8.031429290771484
▁How	-8.03626823425293
▁each	-8.0392484664917
▁able	-8.044050216674805
▁ten	-8.04501724243164
ist	-8.048256874084473
▁Like	-8.05009651184082
ng	-8.050259590148926
ted	-8.054095268249512
▁gonna	-8.06026840209961
sh	-8.063228607177734
▁between	-8.06684684753418
▁moment	-8.067216873168945
▁hard	-8.068434715270996
▁mo	-8.06970500946045
ting	-8.069869995117188
▁without	-8.071478843688965
▁pro	-8.073057174682617
▁important	-8.079245567321777
▁E	-8.079717636108398
▁call	-8.086701393127441
▁both	-8.08707332611084
▁whole	-8.08836841583252
▁state	-8.088409423828125
▁car	-8.09257698059082
▁face	-8.098024368286133
▁la	-8.104255676269531
▁money	-8.104851722717285
mp	-8.107845306396484
ci	-8.117323875427246
ty	-8.11859130859375
▁school	-8.124115943908691
ver	-8.125024795532227
to	-8.125246047973633
▁real	-8.126091003417969
▁set	-8.126218795776367
▁today	-8.126999855041504
▁p	-8.135443687438965
▁best	-8.138416290283203
▁far	-8.138636589050293
ine	-8.139784812927246
▁po	-8.140308380126953
▁high	-8.142971992492676
▁ra	-8.143346786499023
▁Because	-8.144333839416504
▁having	-8.146207809448242
▁left	-8.146217346191406
ie	-8.147777557373047
▁B	-8.148662567138672
at	-8.149341583251953
ful	-8.153721809387207
▁f	-8.154797554016113
ling	-8.156797409057617
ary	-8.158804893493652
ton	-8.160393714904785
ul	-8.161202430725098
▁himself	-8.161762237548828
▁number	-8.16276741027832
▁once	-8.163529396057129
▁night	-8.16363525390625
▁looking	-8.16700553894043
▁li	-8.173821449279785
son	-8.176196098327637
▁All	-8.176264762878418
▁keep	-8.176767349243164
▁book	-8.177464485168457
▁bo	-8.18217945098877
▁war	-8.182989120483398
▁P	-8.183582305908203
co	-8.187115669250488
pe	-8.18747615814209
mo	-8.193694114685059
▁god	-8.193709373474121
▁together	-8.194397926330566
▁ba	-8.19481086730957
▁second	-8.198861122131348
led	-8.199037551879883
▁saw	-8.199911117553711
▁data	-8.200358390808105
▁case	-8.201186180114746
▁young	-8.202444076538086
▁enough	-8.206605911254883
▁k	-8.206806182861328
▁One	-8.20815372467041
▁change	-8.210790634155273
▁My	-8.212319374084473
▁human	-8.214278221130371
▁against	-8.214617729187012
▁anything	-8.216598510742188
▁while	-8.217313766479492
▁quite	-8.221757888793945
▁room	-8.223337173461914
▁C	-8.223794937133789
age	-8.224682807922363
▁Who	-8.225835800170898
▁Yes	-8.227276802062988
ian	-8.230871200561523
vi	-8.231217384338379
▁idea	-8.235808372497559
▁used	-8.237724304199219
▁public	-8.239494323730469
▁took	-8.242009162902832
▁nothing	-8.24477767944336
▁With	-8.246805191040039
▁power	-8.24947738647461
▁light	-8.251555442810059
▁pre	-8.255326271057129
▁live	-8.257234573364258
▁country	-8.257944107055664
▁system	-8.261164665222168
▁water	-8.261877059936523
▁believe	-8.26317024230957
▁story	-8.265974044799805
▁open	-8.2689208984375
ence	-8.274978637695312
ance	-8.278539657592773
▁understand	-8.279403686523438
▁care	-8.282816886901855
▁example	-8.289406776428223
lu	-8.290578842163086
▁talking	-8.293022155761719
▁b	-8.293850898742676
ated	-8.29455280303955
▁vi	-8.295554161071777
▁though	-8.296019554138184
▁da	-8.298142433166504
▁doesn	-8.300333023071289
um	-8.302620887756348
▁mr	-8.303133010864258
▁six	-8.30459213256836
ho	-8.305525779724121
▁told	-8.30923843383789
▁getting	-8.310403823852539
ating	-8.310673713684082
▁law	-8.311247825622559
mb	-8.312422752380371
▁says	-8.315383911132812
▁seen	-8.315815925598145
▁experience	-8.316289901733398
▁trying	-8.318334579467773
▁white	-8.320395469665527
▁order	-8.320856094360352
▁Oh	-8.321821212768555
▁heart	-8.32383918762207
▁Thank	-8.324296951293945
▁read	-8.32503890991211
▁play	-8.325271606445312
ish	-8.330315589904785
▁heard	-8.330331802368164
po	-8.330866813659668
▁ro	-8.331725120544434
nt	-8.335796356201172
▁eyes	-8.33713150024414
▁become	-8.337996482849121
▁everything	-8.339228630065918
▁sense	-8.342406272888184
▁per	-8.342638969421387
▁coming	-8.344195365905762
ha	-8.345937728881836
▁matter	-8.34639835357666
▁week	-8.347140312194824
▁hope	-8.352143287658691
▁At	-8.355018615722656
▁business	-8.359641075134277
▁Re	-8.360517501831055
▁Let	-8.361735343933105
im	-8.362086296081543
▁en	-8.363240242004395
▁black	-8.364171981811523
▁ma	-8.366827964782715
▁family	-8.367256164550781
▁yet	-8.367827415466309
▁hear	-8.369024276733398
▁line	-8.370267868041992
ti	-8.370638847351074
▁Do	-8.371335983276367
▁started	-8.372051239013672
ism	-8.37643814086914
▁saying	-8.37686538696289
▁pretty	-8.379204750061035
▁support	-8.38362979888916
mi	-8.383723258972168
▁Not	-8.386728286743164
▁ca	-8.39260482788086
ru	-8.393378257751465
▁di	-8.399063110351562
▁wanted	-8.399198532104492
▁probably	-8.400550842285156
▁form	-8.402345657348633
▁ask	-8.404497146606445
no	-8.405925750732422
▁knew	-8.40759563446045
▁try	-8.407846450805664
▁looked	-8.40790843963623
▁father	-8.409852027893066
▁maybe	-8.412181854248047
▁process	-8.413324356079102
▁st	-8.413817405700684
▁small	-8.414535522460938
▁na	-8.41666030883789
ial	-8.41946029663086
min	-8.420146942138672
be	-8.425422668457031
▁making	-8.430399894714355
▁already	-8.430785179138184
nd	-8.435013771057129
▁working	-8.435663223266602
▁d	-8.437806129455566
▁asked	-8.440108299255371
▁almost	-8.443489074707031
▁government	-8.444762229919434
▁percent	-8.44566535949707
▁shall	-8.447856903076172
▁word	-8.44809341430664
▁turn	-8.4506196975708
▁com	-8.454632759094238
▁door	-8.45467758178711
▁du	-8.45614242553711
▁children	-8.457633018493652
▁run	-8.459506034851074
▁ho	-8.463027954101562
bo	-8.463543891906738
▁reason	-8.464224815368652
▁remember	-8.46642017364502
▁less	-8.466444969177246
▁days	-8.469059944152832
▁often	-8.472640037536621
▁ex	-8.473932266235352
▁His	-8.474264144897461
am	-8.482670783996582
ous	-8.483438491821289
▁bu	-8.484046936035156
▁else	-8.485038757324219
ring	-8.487332344055176
▁video	-8.48849868774414
up	-8.490937232971191
ad	-8.49152660369873
▁job	-8.497992515563965
▁mother	-8.498072624206543
▁Okay	-8.498796463012695
▁Where	-8.499930381774902
▁half	-8.501180648803711
▁F	-8.502394676208496
▁problem	-8.503365516662598
▁city	-8.504810333251953
▁women	-8.504965782165527
per	-8.505733489990234
▁means	-8.506227493286133
▁myself	-8.506397247314453
▁Be	-8.506562232971191
▁answer	-8.506770133972168
ni	-8.51200008392334
▁free	-8.516039848327637
▁information	-8.52237606048584
do	-8.525594711303711
op	-8.526050567626953
▁report	-8.527050971984863
▁Why	-8.528173446655273
▁sta	-8.528996467590332
▁present	-8.529252052307129
▁american	-8.530182838439941
▁bad	-8.530267715454102
▁health	-8.533808708190918
▁Of	-8.53686237335205
▁stuff	-8.540169715881348
ally	-8.542606353759766
ving	-8.54324722290039
▁woman	-8.543927192687988
▁words	-8.544673919677734
▁On	-8.551802635192871
ca	-8.55395221710205
ard	-8.555506706237793
▁land	-8.558151245117188
▁close	-8.558444023132324
▁community	-8.558845520019531
▁whether	-8.55926513671875
▁felt	-8.559664726257324
▁miss	-8.561453819274902
▁thank	-8.562429428100586
▁ta	-8.562485694885254
▁mar	-8.571873664855957
▁since	-8.573873519897461
va	-8.57452392578125
▁ha	-8.577292442321777
▁seven	-8.578550338745117
▁voice	-8.578709602355957
ut	-8.582125663757324
▁large	-8.583305358886719
▁sp	-8.585366249084473
▁bring	-8.585880279541016
▁true	-8.588133811950684
▁body	-8.589734077453613
▁program	-8.595186233520508
da	-8.596709251403809
▁least	-8.597184181213379
▁thirty	-8.598777770996094
▁ago	-8.600780487060547
▁full	-8.603510856628418
▁T	-8.60407543182373
▁level	-8.60450267791748
▁friend	-8.607380867004395
▁president	-8.607575416564941
▁leave	-8.609103202819824
▁times	-8.61156177520752
▁boy	-8.612086296081543
▁within	-8.61352825164795
▁across	-8.614505767822266
▁t	-8.616705894470215
di	-8.617588996887207
v	-8.617685317993164
▁eight	-8.617796897888184
▁rest	-8.61799144744873
▁social	-8.620272636413574
ugh	-8.626761436462402
om	-8.628612518310547
▁fire	-8.628632545471191
▁soon	-8.629732131958008
▁Just	-8.63105583190918
▁questions	-8.635872840881348
▁act	-8.636028289794922
▁ti	-8.637261390686035
ward	-8.639158248901367
mon	-8.640114784240723
▁someone	-8.640453338623047
▁until	-8.640528678894043
▁O	-8.640585899353027
▁lo	-8.642365455627441
▁happened	-8.642569541931152
che	-8.643775939941406
▁air	-8.649721145629883
▁short	-8.650223731994629
▁certain	-8.65235424041748
▁past	-8.65292739868164
▁move	-8.655900001525879
ther	-8.656074523925781
▁later	-8.657970428466797
ff	-8.658002853393555
▁research	-8.658374786376953
pa	-8.660539627075195
▁morning	-8.66231918334961
▁view	-8.663900375366211
▁interesting	-8.668116569519043
ig	-8.66891098022461
▁mu	-8.670790672302246
▁plan	-8.67280387878418
ious	-8.674808502197266
▁thinking	-8.676109313964844
▁along	-8.676902770996094
▁company	-8.677580833435059
▁le	-8.682278633117676
▁em	-8.684808731079102
king	-8.684996604919434
land	-8.686461448669434
▁death	-8.687040328979492
▁St	-8.687743186950684
▁child	-8.690571784973145
▁mi	-8.690991401672363
ber	-8.692520141601562
ow	-8.692997932434082
▁using	-8.693404197692871
▁comes	-8.694913864135742
▁themselves	-8.695826530456543
▁gave	-8.697521209716797
rs	-8.69762134552002
▁hi	-8.697722434997559
ding	-8.698780059814453
▁states	-8.700228691101074
gg	-8.701072692871094
ph	-8.701179504394531
▁sa	-8.702709197998047
▁strong	-8.703102111816406
▁history	-8.703265190124512
und	-8.703564643859863
▁court	-8.704431533813477
▁imp	-8.706058502197266
▁comp	-8.70681381225586
▁G	-8.70821475982666
ster	-8.710050582885742
▁seemed	-8.710951805114746
▁art	-8.711344718933105
▁students	-8.71497631072998
▁Ma	-8.718188285827637
▁dollars	-8.718453407287598
tch	-8.721546173095703
bu	-8.721831321716309
▁ri	-8.722301483154297
les	-8.723750114440918
▁app	-8.72412395477295
▁pi	-8.725544929504395
▁won	-8.7269926071167
ld	-8.72722339630127
way	-8.729329109191895
▁page	-8.729978561401367
go	-8.731385231018066
ba	-8.731544494628906
▁	-8.73161792755127
▁De	-8.732941627502441
▁rather	-8.73314380645752
▁pe	-8.733323097229004
▁group	-8.733405113220215
▁bi	-8.736018180847168
▁during	-8.737485885620117
ten	-8.740132331848145
lic	-8.74046802520752
▁building	-8.741205215454102
▁U	-8.741937637329102
▁space	-8.742006301879883
▁dr	-8.742598533630371
▁general	-8.742979049682617
▁game	-8.743191719055176
▁team	-8.744393348693848
▁deal	-8.74565601348877
▁sha	-8.746606826782227
▁brain	-8.749523162841797
▁possible	-8.749999046325684
▁bar	-8.750515937805176
▁project	-8.75587272644043
tion	-8.756152153015137
▁clear	-8.759612083435059
▁turned	-8.759936332702637
▁control	-8.762776374816895
nk	-8.763731956481934
▁ju	-8.763784408569336
▁Right	-8.764729499816895
▁se	-8.767793655395508
ac	-8.769477844238281
▁given	-8.769672393798828
▁figure	-8.771145820617676
▁red	-8.7716064453125
▁speak	-8.773444175720215
▁happen	-8.775748252868652
▁behind	-8.780158042907715
▁ne	-8.78075885772705
▁yourself	-8.78144645690918
▁type	-8.781896591186523
▁friends	-8.783154487609863
▁began	-8.783317565917969
▁hands	-8.784184455871582
▁cause	-8.785314559936523
▁Some	-8.787763595581055
▁piece	-8.789344787597656
▁post	-8.78979778289795
▁gone	-8.791913032531738
▁test	-8.794172286987305
▁future	-8.794400215148926
rn	-8.797585487365723
▁feeling	-8.798542022705078
▁fifty	-8.799165725708008
▁stay	-8.801258087158203
▁lu	-8.801599502563477
▁early	-8.803295135498047
▁science	-8.804964065551758
▁sound	-8.805305480957031
▁brought	-8.805954933166504
▁king	-8.806187629699707
dy	-8.806886672973633
▁sometimes	-8.807897567749023
▁sea	-8.808162689208984
▁front	-8.80987548828125
ities	-8.810938835144043
▁top	-8.811508178710938
▁Was	-8.811991691589355
▁taken	-8.813579559326172
ud	-8.815299987792969
pi	-8.81830883026123
▁These	-8.818465232849121
▁yes	-8.818669319152832
▁million	-8.821282386779785
▁goes	-8.82321548461914
▁fear	-8.824690818786621
▁girl	-8.827204704284668
▁learn	-8.82737922668457
▁record	-8.828295707702637
▁pay	-8.828303337097168
▁conversation	-8.829682350158691
▁sub	-8.830820083618164
cu	-8.83112621307373
▁va	-8.83386516571045
▁either	-8.834004402160645
▁deep	-8.834396362304688
▁taking	-8.83486270904541
▁food	-8.838706970214844
ure	-8.839694023132324
con	-8.841170310974121
▁itself	-8.841337203979492
▁product	-8.842100143432617
▁wish	-8.844846725463867
▁couple	-8.846007347106934
▁oh	-8.84604263305664
os	-8.8470458984375
▁sign	-8.847054481506348
▁star	-8.848076820373535
▁By	-8.850798606872559
bb	-8.851412773132324
line	-8.851935386657715
▁near	-8.85387134552002
▁break	-8.854177474975586
ak	-8.854326248168945
▁particular	-8.855229377746582
▁music	-8.857132911682129
▁wrong	-8.857285499572754
ator	-8.859475135803223
▁Here	-8.860856056213379
hi	-8.860992431640625
fi	-8.862666130065918
ions	-8.863975524902344
end	-8.86518669128418
▁table	-8.866039276123047
▁pass	-8.86642074584961
▁language	-8.868209838867188
▁terms	-8.868328094482422
▁Said	-8.870763778686523
▁whatever	-8.871845245361328
▁forward	-8.87463665008545
▁age	-8.875112533569336
▁value	-8.875741958618164
▁create	-8.8770170211792
▁board	-8.878153800964355
▁write	-8.878266334533691
tter	-8.878756523132324
▁wasn	-8.880609512329102
▁became	-8.88107967376709
▁fall	-8.885245323181152
ized	-8.887094497680664
▁al	-8.8873872756958
ot	-8.888123512268066
▁After	-8.88845443725586
▁letter	-8.889495849609375
▁ga	-8.890026092529297
▁makes	-8.89005184173584
▁ru	-8.890141487121582
ach	-8.891339302062988
▁everyone	-8.898794174194336
▁guys	-8.899429321289062
▁su	-8.901535987854004
▁build	-8.90259838104248
▁self	-8.903517723083496
▁effect	-8.908516883850098
▁gra	-8.909727096557617
▁service	-8.909852981567383
▁tra	-8.911705017089844
em	-8.911762237548828
ler	-8.91187572479248
▁hu	-8.913459777832031
▁An	-8.913695335388184
▁stop	-8.914240837097168
▁living	-8.914468765258789
▁guess	-8.914969444274902
fa	-8.915960311889648
▁ways	-8.917113304138184
▁step	-8.918097496032715
▁common	-8.920344352722168
der	-8.920821189880371
fe	-8.922719955444336
▁basically	-8.923425674438477
▁Even	-8.92547607421875
▁nine	-8.926257133483887
▁known	-8.928040504455566
▁sun	-8.928135871887207
bi	-8.928802490234375
▁je	-8.930217742919922
▁ground	-8.932550430297852
▁single	-8.935835838317871
ap	-8.935955047607422
▁cannot	-8.93652057647705
▁interest	-8.93747329711914
▁son	-8.93787670135498
▁university	-8.942423820495605
ite	-8.94796371459961
▁john	-8.948890686035156
▁low	-8.951141357421875
▁wa	-8.952350616455078
▁seems	-8.954232215881348
▁everybody	-8.95648193359375
ical	-8.957659721374512
ga	-8.959439277648926
▁fa	-8.959807395935059
▁study	-8.960097312927246
ize	-8.961711883544922
▁national	-8.962126731872559
nce	-8.963510513305664
▁earth	-8.964299201965332
▁among	-8.966176986694336
▁stand	-8.967767715454102
▁forty	-8.968523979187012
ning	-8.968704223632812
ron	-8.968804359436035
▁w	-8.969602584838867
▁add	-8.97003173828125
▁poor	-8.970741271972656
▁send	-8.971046447753906
▁Mr	-8.971203804016113
our	-8.973356246948242
▁pa	-8.974417686462402
ep	-8.974997520446777
side	-8.975767135620117
▁lost	-8.976265907287598
ign	-8.97634220123291
▁Go	-8.977605819702148
▁somebody	-8.978216171264648
▁el	-8.979790687561035
▁nature	-8.981263160705566
▁united	-8.981379508972168
M	-9.450413703918457
T	-9.54047966003418
E	-10.113533020019531
I	-10.289509773254395
q	-10.39603042602539
j	-10.400154113769531
A	-10.423524856567383
N	-10.511815071105957
O	-10.562163352966309
R	-10.719256401062012
H	-10.963281631469727
D	-11.053268432617188
L	-11.095566749572754
Q	-11.128028869628906
Y	-11.522759437561035
U	-11.559671401977539
C	-11.604079246520996
W	-11.624624252319336
G	-11.79791259765625
X	-11.799727439880371
F	-12.142159461975098
P	-12.176397323608398
B	-12.210610389709473
V	-12.717714309692383
K	-12.866544723510742
Z	-14.223336219787598
J	-14.475981712341309
